#include "model.h"

const unsigned char g_model[] = {
  0x20, 0x00, 0x00, 0x00, 0x54, 0x46, 0x4c, 0x33, 0x00, 0x00, 0x00, 0x00,
  0x14, 0x00, 0x20, 0x00, 0x1c, 0x00, 0x18, 0x00, 0x14, 0x00, 0x10, 0x00,
  0x0c, 0x00, 0x00, 0x00, 0x08, 0x00, 0x04, 0x00, 0x14, 0x00, 0x00, 0x00,
  0x1c, 0x00, 0x00, 0x00, 0x8c, 0x00, 0x00, 0x00, 0x0c, 0x01, 0x00, 0x00,
  0x00, 0x38, 0x00, 0x00, 0x10, 0x38, 0x00, 0x00, 0x94, 0x4d, 0x00, 0x00,
  0x03, 0x00, 0x00, 0x00, 0x01, 0x00, 0x00, 0x00, 0x04, 0x00, 0x00, 0x00,
  0xd6, 0xc6, 0xff, 0xff, 0x0c, 0x00, 0x00, 0x00, 0x1c, 0x00, 0x00, 0x00,
  0x3c, 0x00, 0x00, 0x00, 0x0f, 0x00, 0x00, 0x00, 0x73, 0x65, 0x72, 0x76,
  0x69, 0x6e, 0x67, 0x5f, 0x64, 0x65, 0x66, 0x61, 0x75, 0x6c, 0x74, 0x00,
  0x01, 0x00, 0x00, 0x00, 0x04, 0x00, 0x00, 0x00, 0x68, 0xff, 0xff, 0xff,
  0x18, 0x00, 0x00, 0x00, 0x04, 0x00, 0x00, 0x00, 0x08, 0x00, 0x00, 0x00,
  0x6f, 0x75, 0x74, 0x70, 0x75, 0x74, 0x5f, 0x30, 0x00, 0x00, 0x00, 0x00,
  0x01, 0x00, 0x00, 0x00, 0x04, 0x00, 0x00, 0x00, 0xde, 0xc6, 0xff, 0xff,
  0x04, 0x00, 0x00, 0x00, 0x0c, 0x00, 0x00, 0x00, 0x6b, 0x65, 0x72, 0x61,
  0x73, 0x5f, 0x74, 0x65, 0x6e, 0x73, 0x6f, 0x72, 0x00, 0x00, 0x00, 0x00,
  0x03, 0x00, 0x00, 0x00, 0x5c, 0x00, 0x00, 0x00, 0x2c, 0x00, 0x00, 0x00,
  0x04, 0x00, 0x00, 0x00, 0xb8, 0xff, 0xff, 0xff, 0x1c, 0x00, 0x00, 0x00,
  0x04, 0x00, 0x00, 0x00, 0x13, 0x00, 0x00, 0x00, 0x43, 0x4f, 0x4e, 0x56,
  0x45, 0x52, 0x53, 0x49, 0x4f, 0x4e, 0x5f, 0x4d, 0x45, 0x54, 0x41, 0x44,
  0x41, 0x54, 0x41, 0x00, 0xdc, 0xff, 0xff, 0xff, 0x1b, 0x00, 0x00, 0x00,
  0x04, 0x00, 0x00, 0x00, 0x13, 0x00, 0x00, 0x00, 0x6d, 0x69, 0x6e, 0x5f,
  0x72, 0x75, 0x6e, 0x74, 0x69, 0x6d, 0x65, 0x5f, 0x76, 0x65, 0x72, 0x73,
  0x69, 0x6f, 0x6e, 0x00, 0x08, 0x00, 0x0c, 0x00, 0x08, 0x00, 0x04, 0x00,
  0x08, 0x00, 0x00, 0x00, 0x1a, 0x00, 0x00, 0x00, 0x04, 0x00, 0x00, 0x00,
  0x13, 0x00, 0x00, 0x00, 0x6d, 0x69, 0x6e, 0x5f, 0x72, 0x75, 0x6e, 0x74,
  0x69, 0x6d, 0x65, 0x5f, 0x76, 0x65, 0x72, 0x73, 0x69, 0x6f, 0x6e, 0x00,
  0x1d, 0x00, 0x00, 0x00, 0xf0, 0x36, 0x00, 0x00, 0xe8, 0x36, 0x00, 0x00,
  0xd4, 0x36, 0x00, 0x00, 0xc0, 0x36, 0x00, 0x00, 0xac, 0x36, 0x00, 0x00,
  0x74, 0x36, 0x00, 0x00, 0x24, 0x35, 0x00, 0x00, 0x94, 0x34, 0x00, 0x00,
  0x84, 0x06, 0x00, 0x00, 0x34, 0x06, 0x00, 0x00, 0xa4, 0x01, 0x00, 0x00,
  0x74, 0x01, 0x00, 0x00, 0x1c, 0x01, 0x00, 0x00, 0x14, 0x01, 0x00, 0x00,
  0x0c, 0x01, 0x00, 0x00, 0x04, 0x01, 0x00, 0x00, 0xfc, 0x00, 0x00, 0x00,
  0xf4, 0x00, 0x00, 0x00, 0xec, 0x00, 0x00, 0x00, 0xe4, 0x00, 0x00, 0x00,
  0xdc, 0x00, 0x00, 0x00, 0xd4, 0x00, 0x00, 0x00, 0xcc, 0x00, 0x00, 0x00,
  0xc4, 0x00, 0x00, 0x00, 0xbc, 0x00, 0x00, 0x00, 0xb4, 0x00, 0x00, 0x00,
  0x94, 0x00, 0x00, 0x00, 0x74, 0x00, 0x00, 0x00, 0x04, 0x00, 0x00, 0x00,
  0xf6, 0xc7, 0xff, 0xff, 0x04, 0x00, 0x00, 0x00, 0x60, 0x00, 0x00, 0x00,
  0x0c, 0x00, 0x00, 0x00, 0x08, 0x00, 0x0e, 0x00, 0x08, 0x00, 0x04, 0x00,
  0x08, 0x00, 0x00, 0x00, 0x10, 0x00, 0x00, 0x00, 0x28, 0x00, 0x00, 0x00,
  0x00, 0x00, 0x06, 0x00, 0x08, 0x00, 0x04, 0x00, 0x06, 0x00, 0x00, 0x00,
  0x04, 0x00, 0x00, 0x00, 0x01, 0x00, 0x00, 0x00, 0xeb, 0x03, 0x00, 0x00,
  0x0c, 0x00, 0x18, 0x00, 0x14, 0x00, 0x10, 0x00, 0x0c, 0x00, 0x04, 0x00,
  0x0c, 0x00, 0x00, 0x00, 0xed, 0x01, 0xf5, 0x19, 0x01, 0xd6, 0xa6, 0xdc,
  0x02, 0x00, 0x00, 0x00, 0x02, 0x00, 0x00, 0x00, 0x04, 0x00, 0x00, 0x00,
  0x06, 0x00, 0x00, 0x00, 0x32, 0x2e, 0x31, 0x39, 0x2e, 0x30, 0x00, 0x00,
  0x62, 0xc8, 0xff, 0xff, 0x04, 0x00, 0x00, 0x00, 0x10, 0x00, 0x00, 0x00,
  0x00, 0x00, 0x00, 0x00, 0x00, 0x00, 0x00, 0x00, 0x00, 0x00, 0x00, 0x00,
  0x00, 0x00, 0x00, 0x00, 0x7e, 0xc8, 0xff, 0xff, 0x04, 0x00, 0x00, 0x00,
  0x10, 0x00, 0x00, 0x00, 0x31, 0x2e, 0x31, 0x34, 0x2e, 0x30, 0x00, 0x00,
  0x00, 0x00, 0x00, 0x00, 0x00, 0x00, 0x00, 0x00, 0x60, 0xb5, 0xff, 0xff,
  0x64, 0xb5, 0xff, 0xff, 0x68, 0xb5, 0xff, 0xff, 0x6c, 0xb5, 0xff, 0xff,
  0x70, 0xb5, 0xff, 0xff, 0x74, 0xb5, 0xff, 0xff, 0x78, 0xb5, 0xff, 0xff,
  0x7c, 0xb5, 0xff, 0xff, 0x80, 0xb5, 0xff, 0xff, 0x84, 0xb5, 0xff, 0xff,
  0x88, 0xb5, 0xff, 0xff, 0x8c, 0xb5, 0xff, 0xff, 0x90, 0xb5, 0xff, 0xff,
  0xce, 0xc8, 0xff, 0xff, 0x04, 0x00, 0x00, 0x00, 0x48, 0x00, 0x00, 0x00,
  0xaa, 0xd0, 0x22, 0xd1, 0xe3, 0xc7, 0xfc, 0xbc, 0x81, 0xd7, 0xf6, 0x41,
  0x8d, 0xeb, 0x47, 0x84, 0x81, 0x41, 0x34, 0x4e, 0x3a, 0x31, 0x46, 0x23,
  0x13, 0x7f, 0x40, 0x1b, 0x18, 0x16, 0x5f, 0x22, 0x37, 0x7f, 0x58, 0xef,
  0x15, 0x11, 0xcc, 0x43, 0xe2, 0x8d, 0x20, 0xeb, 0x81, 0x2d, 0x81, 0x53,
  0xe8, 0xbc, 0xea, 0x55, 0xb5, 0x0c, 0xdc, 0x7f, 0x29, 0xc4, 0x58, 0x01,
  0xaf, 0x5c, 0xdd, 0x7f, 0xb5, 0x06, 0x49, 0xc4, 0xfd, 0x68, 0x9d, 0x20,
  0x22, 0xc9, 0xff, 0xff, 0x04, 0x00, 0x00, 0x00, 0x20, 0x00, 0x00, 0x00,
  0x25, 0xf7, 0xff, 0xff, 0xbd, 0x03, 0x00, 0x00, 0x8e, 0xf7, 0xff, 0xff,
  0xae, 0x01, 0x00, 0x00, 0xb8, 0x02, 0x00, 0x00, 0x88, 0x07, 0x00, 0x00,
  0x02, 0xff, 0xff, 0xff, 0x12, 0xfc, 0xff, 0xff, 0x4e, 0xc9, 0xff, 0xff,
  0x04, 0x00, 0x00, 0x00, 0x80, 0x04, 0x00, 0x00, 0xb6, 0xf8, 0xdd, 0x01,
  0x01, 0xe1, 0x28, 0x0c, 0x53, 0x16, 0xcc, 0xee, 0x02, 0x24, 0xd2, 0xf6,
  0x17, 0x13, 0x1a, 0xec, 0x18, 0xf2, 0x2d, 0x41, 0x8b, 0xf7, 0xfc, 0x18,
  0xfa, 0xd4, 0x06, 0x13, 0x17, 0xeb, 0xe8, 0x02, 0x0d, 0x27, 0xc9, 0x1b,
  0x2a, 0xff, 0x0d, 0xd6, 0x0b, 0xfc, 0x39, 0x1f, 0x81, 0x0b, 0x1e, 0x22,
  0xfa, 0xdc, 0x0d, 0x02, 0x12, 0xbd, 0x19, 0x06, 0x0e, 0x0a, 0xc3, 0x23,
  0x1c, 0xf7, 0xe3, 0xc0, 0xfe, 0x0c, 0x1e, 0xf6, 0x51, 0x4f, 0xda, 0xec,
  0x2b, 0x00, 0x26, 0x11, 0xc9, 0xf4, 0xfc, 0xec, 0x06, 0xe3, 0xf6, 0xf2,
  0x1b, 0xe8, 0x2c, 0x1b, 0x16, 0x08, 0xde, 0x17, 0x29, 0x11, 0x9d, 0xeb,
  0x15, 0xf8, 0x1e, 0xf1, 0xdd, 0x08, 0x87, 0xd6, 0xfe, 0xf6, 0x01, 0xc8,
  0x10, 0x18, 0x20, 0xf7, 0x3b, 0x33, 0xee, 0x1a, 0xa3, 0x81, 0x0d, 0x30,
  0xe1, 0x0e, 0xc2, 0x19, 0xc5, 0xc4, 0xda, 0x01, 0x2a, 0x16, 0x25, 0x09,
  0xf7, 0xe6, 0xd4, 0x11, 0x47, 0x0c, 0xe3, 0x1c, 0xf4, 0xf5, 0x24, 0xf9,
  0x47, 0x14, 0x4f, 0x18, 0x3b, 0x52, 0xd7, 0x0c, 0x38, 0x24, 0x19, 0x30,
  0x3d, 0x1d, 0xe7, 0x19, 0x5f, 0x19, 0x33, 0x7f, 0xdf, 0xac, 0x33, 0xca,
  0xce, 0xe0, 0xdc, 0xd9, 0x0a, 0xf3, 0xdd, 0x11, 0xd2, 0x0c, 0xfe, 0x23,
  0x03, 0x12, 0xc1, 0x19, 0x55, 0x1b, 0xe5, 0x7b, 0x1b, 0xbf, 0x33, 0xe1,
  0x9f, 0xbe, 0x0e, 0xcb, 0x06, 0xbb, 0xf7, 0xff, 0xcf, 0x09, 0xce, 0x1c,
  0x08, 0x1e, 0xff, 0xdf, 0x31, 0x0f, 0xd8, 0x23, 0xe2, 0x0c, 0xee, 0xe1,
  0xea, 0x2a, 0x1e, 0x00, 0xc4, 0x07, 0x20, 0xf4, 0x5f, 0x31, 0xee, 0x3b,
  0xc8, 0x1e, 0xa8, 0xac, 0x36, 0x5a, 0x8b, 0xd2, 0xb0, 0x1b, 0xe6, 0xf1,
  0x17, 0xf6, 0x01, 0x06, 0xe7, 0xea, 0x17, 0xfd, 0x7f, 0x20, 0x13, 0x38,
  0xc3, 0x26, 0xa1, 0xa7, 0x3e, 0x4d, 0xc5, 0xd5, 0xd3, 0x04, 0xa9, 0xbd,
  0x09, 0x0a, 0x1e, 0xed, 0x16, 0x0e, 0xeb, 0xe0, 0x60, 0x1c, 0xe2, 0x01,
  0xf3, 0xeb, 0xe0, 0xcd, 0xec, 0x72, 0xb6, 0x14, 0x92, 0xd4, 0xe6, 0xd3,
  0x5b, 0x34, 0xe7, 0x07, 0x06, 0x68, 0x29, 0xe4, 0xda, 0xf6, 0x00, 0xda,
  0x05, 0x9b, 0x0c, 0xf5, 0xfd, 0x0a, 0xfc, 0x30, 0xb5, 0x17, 0xf4, 0xcd,
  0xa8, 0xee, 0x00, 0xf1, 0xc9, 0x1e, 0x5e, 0x06, 0x3a, 0xf2, 0x2d, 0x49,
  0xe8, 0xb5, 0xdb, 0x05, 0xdc, 0xfb, 0xe9, 0x09, 0xed, 0x39, 0x13, 0x13,
  0x81, 0xf5, 0x20, 0x16, 0x0b, 0xd9, 0x30, 0xe8, 0x3b, 0x12, 0x32, 0x47,
  0x09, 0x05, 0xd2, 0xe5, 0xaf, 0x27, 0xdd, 0x22, 0xe5, 0x3c, 0x00, 0x14,
  0xb5, 0x92, 0x33, 0xf4, 0xae, 0xa0, 0x19, 0x04, 0x04, 0x07, 0x09, 0x61,
  0x11, 0xcf, 0xf6, 0xf3, 0xcd, 0xa7, 0xe7, 0x1e, 0xf7, 0x2c, 0x1e, 0x06,
  0x1c, 0xb9, 0x08, 0x1b, 0xbc, 0x0f, 0xed, 0x05, 0x0e, 0xd6, 0x86, 0x30,
  0x26, 0x0a, 0x5d, 0xd8, 0x0e, 0x94, 0x22, 0x4d, 0xf9, 0xc0, 0xf2, 0x21,
  0x3a, 0xf7, 0xeb, 0x4c, 0xa6, 0x73, 0x81, 0xaa, 0xd2, 0x18, 0xa3, 0x01,
  0x60, 0x1d, 0x17, 0x02, 0xff, 0xa0, 0x38, 0x7c, 0x0c, 0x32, 0xe3, 0xee,
  0xc2, 0x12, 0x32, 0x26, 0x30, 0xf1, 0x0a, 0xab, 0xd8, 0xf2, 0xde, 0x0e,
  0xcd, 0xb2, 0xc5, 0xab, 0x0d, 0x8e, 0x0f, 0x27, 0xed, 0x15, 0x2d, 0x01,
  0xe0, 0xf8, 0x1f, 0x50, 0xcc, 0xdf, 0x33, 0xd8, 0x26, 0xf5, 0xbd, 0x2c,
  0x81, 0xda, 0x00, 0xaf, 0xfa, 0xb3, 0x3a, 0x5b, 0x06, 0xe6, 0x27, 0xe1,
  0xc3, 0x27, 0xe9, 0x2f, 0xa9, 0xc4, 0x16, 0xc9, 0x39, 0x0c, 0xde, 0x4e,
  0xdb, 0xe8, 0xd0, 0xd4, 0xd2, 0xd1, 0x53, 0xff, 0xb9, 0xf1, 0xb1, 0x06,
  0x3a, 0x01, 0x0c, 0x40, 0x0a, 0x05, 0xd4, 0x9d, 0xe9, 0xe6, 0xba, 0x02,
  0x07, 0x22, 0x11, 0xe2, 0xb3, 0x8b, 0x16, 0xfa, 0xca, 0x0f, 0xfe, 0x13,
  0x25, 0xe7, 0x3d, 0x26, 0x26, 0x2e, 0x1e, 0xda, 0xaa, 0xf3, 0x2c, 0xe6,
  0x3a, 0x1b, 0x34, 0xe8, 0xed, 0xa2, 0x2a, 0x50, 0xd2, 0x0b, 0xef, 0x02,
  0x18, 0xfc, 0x04, 0x39, 0xe8, 0x33, 0x71, 0xf9, 0xa6, 0xbb, 0x3b, 0x0d,
  0x7f, 0x12, 0x4f, 0x13, 0x37, 0xc8, 0xd3, 0x4f, 0x0b, 0x3b, 0x04, 0xf1,
  0x20, 0xdb, 0x2a, 0x0b, 0xad, 0x4e, 0xeb, 0xf0, 0xca, 0xdc, 0xf4, 0xe7,
  0x1a, 0x2c, 0x51, 0x26, 0xb7, 0xf7, 0x39, 0xe5, 0x18, 0x0e, 0xee, 0xf4,
  0xe0, 0x02, 0x0a, 0xc8, 0xa8, 0xda, 0xf6, 0xf5, 0xe1, 0x04, 0xfc, 0x02,
  0x32, 0x01, 0x0c, 0xf6, 0x16, 0x10, 0x2b, 0xdd, 0xa9, 0xcb, 0x16, 0x0a,
  0xbe, 0x17, 0xc6, 0x05, 0xc6, 0xc3, 0x1f, 0x22, 0x28, 0x12, 0xf6, 0x2c,
  0x7f, 0xe4, 0xd4, 0xf5, 0x5b, 0x30, 0xf2, 0x09, 0xb8, 0x21, 0x16, 0x14,
  0xe6, 0xf5, 0x26, 0xfd, 0x3e, 0x14, 0x2d, 0xef, 0xee, 0xd4, 0x32, 0x0b,
  0x98, 0x81, 0x1e, 0x05, 0x12, 0xe8, 0x2d, 0x26, 0x95, 0x18, 0x14, 0x0b,
  0xe4, 0x09, 0x0f, 0xf9, 0x4d, 0xff, 0x03, 0xfa, 0x08, 0xd6, 0x22, 0x0d,
  0x8f, 0xb5, 0xd4, 0x05, 0x20, 0x08, 0xfd, 0x0d, 0xb4, 0xdc, 0xdd, 0x02,
  0x07, 0x28, 0xe3, 0x1c, 0x5d, 0x09, 0xc1, 0xd6, 0x19, 0xda, 0x2a, 0x04,
  0xa6, 0x1f, 0xb0, 0xdf, 0x0f, 0x03, 0xf7, 0xf8, 0xc2, 0xf5, 0xc1, 0xcc,
  0xd3, 0x32, 0xee, 0xea, 0xde, 0x23, 0x47, 0xfc, 0xe4, 0xda, 0x3b, 0x05,
  0x81, 0xf7, 0xfc, 0x10, 0xa8, 0x1b, 0x02, 0xe5, 0xb9, 0xfe, 0xe3, 0xfd,
  0x11, 0x31, 0xf2, 0xe9, 0xf9, 0x4d, 0x50, 0xf4, 0xcb, 0xfd, 0x3f, 0x20,
  0xa7, 0xfd, 0xd4, 0xf2, 0xc9, 0x00, 0x0b, 0x22, 0xd6, 0x04, 0xd0, 0x0d,
  0xfb, 0x3a, 0xee, 0x0b, 0xcf, 0x44, 0x27, 0xf9, 0xac, 0xd3, 0x1e, 0xfe,
  0xc3, 0xbf, 0xee, 0x13, 0xc0, 0x24, 0x0a, 0x19, 0x26, 0x28, 0xda, 0xd9,
  0xff, 0xcc, 0x0e, 0xf4, 0xc3, 0xc6, 0x07, 0xfa, 0x4b, 0xf2, 0x05, 0x28,
  0xb5, 0x05, 0xbd, 0xb6, 0x58, 0xb7, 0x09, 0x04, 0x56, 0x03, 0xde, 0x07,
  0x46, 0x01, 0x0e, 0xf5, 0xc1, 0xde, 0xd4, 0xe1, 0xeb, 0x00, 0xe4, 0x1e,
  0xb8, 0x2c, 0x3a, 0xe6, 0xbd, 0xc8, 0x1a, 0x35, 0x5e, 0xf3, 0xe8, 0xd7,
  0x47, 0xea, 0x08, 0x17, 0x0b, 0x33, 0xf7, 0xe4, 0x96, 0x07, 0x01, 0xcd,
  0xdc, 0x32, 0x7f, 0xe2, 0xcf, 0xff, 0xf4, 0x34, 0xa4, 0x9c, 0xd7, 0xdf,
  0x42, 0xae, 0x07, 0xe9, 0xa8, 0x24, 0x95, 0xe4, 0xc3, 0x81, 0x06, 0xfd,
  0x9b, 0xc9, 0x30, 0xd9, 0x2e, 0x92, 0xfd, 0xf5, 0x94, 0xbf, 0xd7, 0x2f,
  0x1c, 0x98, 0xec, 0xb2, 0x57, 0xf0, 0xf9, 0x15, 0x22, 0xfc, 0xa0, 0x3d,
  0x3f, 0xf5, 0xbf, 0x5d, 0x9a, 0x8d, 0xe1, 0xb6, 0xa0, 0xf2, 0x29, 0xd6,
  0x55, 0xfc, 0xd9, 0x9b, 0x9e, 0x18, 0x36, 0xc5, 0x20, 0x0f, 0x18, 0x87,
  0x8a, 0x37, 0xac, 0xf4, 0x10, 0x4c, 0x82, 0xb3, 0xd2, 0x19, 0xed, 0xdb,
  0x13, 0xce, 0xf9, 0x7f, 0xae, 0x18, 0xe0, 0x0b, 0xec, 0x2d, 0xf0, 0xf3,
  0xf2, 0x03, 0xf4, 0x22, 0x03, 0x2e, 0xfd, 0x0a, 0xcc, 0x24, 0xd9, 0xb5,
  0xdc, 0x87, 0xfc, 0xd7, 0xd4, 0xfc, 0xec, 0x21, 0x0b, 0x22, 0xf7, 0xec,
  0xec, 0xe7, 0xfc, 0x23, 0x19, 0x2a, 0x01, 0x10, 0xe7, 0x0d, 0xd0, 0xd9,
  0xe1, 0xb5, 0xf1, 0x29, 0xc4, 0xed, 0x14, 0x16, 0x12, 0x2b, 0x21, 0x21,
  0xee, 0xdd, 0xe7, 0x11, 0xf3, 0x09, 0xf4, 0x0e, 0x82, 0xa8, 0xee, 0xcf,
  0x2a, 0xe4, 0x12, 0x24, 0x43, 0x9c, 0xb4, 0x99, 0xa6, 0xc7, 0xf5, 0xd6,
  0x85, 0xc4, 0x04, 0xcf, 0x07, 0x34, 0x3c, 0x0e, 0x15, 0x9f, 0xaf, 0xb5,
  0x06, 0x4a, 0xb2, 0xdb, 0xd3, 0xf9, 0xc6, 0xe6, 0x41, 0x16, 0x23, 0xfa,
  0x9d, 0xbb, 0xa7, 0x18, 0xb1, 0x0b, 0xa5, 0x0a, 0x1e, 0x3f, 0x9c, 0xe6,
  0xcc, 0x82, 0x15, 0xa6, 0xc2, 0xfa, 0x9b, 0x1a, 0xf1, 0xa2, 0x14, 0xac,
  0xf8, 0x53, 0x81, 0xc0, 0xb7, 0x70, 0xbd, 0x24, 0xb5, 0x22, 0x00, 0xeb,
  0x06, 0x1c, 0xc4, 0xf3, 0xa6, 0xf4, 0x12, 0x0c, 0x53, 0xed, 0x33, 0x04,
  0x2b, 0xba, 0xdd, 0xf9, 0x2e, 0xfc, 0xd1, 0x21, 0xab, 0xee, 0x29, 0x0e,
  0x05, 0xfe, 0xf8, 0x14, 0x9d, 0x18, 0x03, 0xf5, 0x02, 0x02, 0x0e, 0x06,
  0xd8, 0x9c, 0xf5, 0xfc, 0x36, 0x08, 0xf6, 0x08, 0xc0, 0xb3, 0x37, 0x0c,
  0x0e, 0xec, 0x0e, 0x0b, 0xba, 0x0c, 0x01, 0x00, 0xd5, 0x04, 0xf1, 0x0b,
  0xf9, 0x81, 0x02, 0x12, 0x18, 0xf4, 0x0d, 0x18, 0xda, 0xcd, 0xff, 0xff,
  0x04, 0x00, 0x00, 0x00, 0x40, 0x00, 0x00, 0x00, 0x14, 0xfe, 0xff, 0xff,
  0xb7, 0x00, 0x00, 0x00, 0xdc, 0xfd, 0xff, 0xff, 0x71, 0xfc, 0xff, 0xff,
  0x55, 0xfd, 0xff, 0xff, 0xd6, 0xf8, 0xff, 0xff, 0xb6, 0xf6, 0xff, 0xff,
  0xd5, 0xf8, 0xff, 0xff, 0x9a, 0xff, 0xff, 0xff, 0x3b, 0xfd, 0xff, 0xff,
  0x3c, 0xff, 0xff, 0xff, 0xc7, 0xfa, 0xff, 0xff, 0x3e, 0xff, 0xff, 0xff,
  0x71, 0x00, 0x00, 0x00, 0x9b, 0xff, 0xff, 0xff, 0xce, 0xff, 0xff, 0xff,
  0x26, 0xce, 0xff, 0xff, 0x04, 0x00, 0x00, 0x00, 0x00, 0x2e, 0x00, 0x00,
  0xc5, 0x16, 0x06, 0x19, 0xff, 0xe1, 0xe2, 0xcc, 0xef, 0xee, 0xf6, 0x1f,
  0xed, 0x19, 0x03, 0xf9, 0x14, 0x21, 0xfc, 0x1f, 0xd8, 0x02, 0xf8, 0xe1,
  0x45, 0x06, 0x4a, 0x02, 0xfa, 0x11, 0x12, 0xee, 0x1b, 0xdb, 0xe7, 0x1c,
  0xc6, 0xc9, 0x04, 0xef, 0x5c, 0x0e, 0x11, 0xfc, 0xf9, 0x13, 0xf1, 0xe3,
  0x14, 0x93, 0x06, 0xf1, 0xd5, 0xf5, 0x0b, 0xff, 0x0d, 0xcd, 0x1f, 0x1e,
  0x11, 0x02, 0xfb, 0x28, 0xf6, 0xde, 0xea, 0xfb, 0x8a, 0xeb, 0x2d, 0xe8,
  0x19, 0x9a, 0x0b, 0x1c, 0x14, 0x21, 0x09, 0x17, 0xd9, 0xb4, 0xf7, 0xfd,
  0xa9, 0x09, 0x2b, 0xc1, 0xf9, 0xb6, 0xf9, 0x1d, 0xfb, 0xe2, 0xee, 0xfe,
  0xfd, 0xbd, 0xd8, 0xd7, 0xb1, 0x04, 0x2b, 0xe1, 0xd2, 0xe1, 0xe2, 0x1e,
  0x12, 0xde, 0xf5, 0x20, 0xf3, 0xd6, 0xe5, 0xbe, 0xf6, 0x1c, 0x0c, 0x00,
  0xf2, 0x18, 0x00, 0x1b, 0x0e, 0xc6, 0xf4, 0x0a, 0xd5, 0xf2, 0xd3, 0xd7,
  0xde, 0x18, 0xfc, 0x14, 0x07, 0x18, 0x19, 0x31, 0x0b, 0xb3, 0xfa, 0x40,
  0xf3, 0x0e, 0xd6, 0xf3, 0xb9, 0x26, 0xb5, 0x15, 0xf6, 0x19, 0xfe, 0x0f,
  0xf3, 0xce, 0x04, 0x0a, 0xfb, 0x22, 0xba, 0xf8, 0xd7, 0x19, 0xed, 0x21,
  0xe0, 0x15, 0x01, 0x04, 0xfe, 0xb0, 0xfd, 0x04, 0xf3, 0x4e, 0xd7, 0xec,
  0xf5, 0xf9, 0xd6, 0xf8, 0xcd, 0x08, 0xcc, 0x03, 0xf7, 0x82, 0x02, 0x26,
  0xfb, 0x5a, 0xde, 0x05, 0x4d, 0xfe, 0xd0, 0x02, 0xd8, 0xe0, 0xea, 0x06,
  0x02, 0x81, 0x14, 0x20, 0x00, 0x38, 0x38, 0x26, 0x4f, 0xfc, 0xe6, 0xfe,
  0xbc, 0xe8, 0x04, 0xf6, 0x09, 0x9f, 0xf6, 0x24, 0x06, 0x0c, 0x22, 0x36,
  0x4f, 0xee, 0xd0, 0x02, 0xf3, 0xf8, 0xf8, 0xff, 0x0d, 0xde, 0xfe, 0x05,
  0x0a, 0x2d, 0x09, 0x1a, 0x19, 0x01, 0xe2, 0x08, 0xd9, 0x13, 0xdd, 0xd6,
  0x0a, 0xdb, 0x0a, 0x06, 0xe5, 0x43, 0x24, 0x28, 0x3e, 0xf4, 0x00, 0x1a,
  0xec, 0x07, 0xf4, 0xeb, 0x0b, 0x0d, 0x15, 0xf1, 0xfb, 0x1e, 0x31, 0x23,
  0x27, 0x07, 0xfa, 0x12, 0xdf, 0x06, 0x15, 0xeb, 0x05, 0xf1, 0x08, 0x2d,
  0xfb, 0x0c, 0x23, 0x1c, 0x18, 0xfc, 0xfc, 0x13, 0xf8, 0x19, 0xe3, 0xe8,
  0x10, 0xf2, 0xf9, 0x1c, 0xf1, 0xf6, 0x1e, 0xfb, 0x21, 0x05, 0x10, 0x10,
  0xf0, 0xfc, 0xe1, 0xf0, 0xeb, 0x18, 0xfb, 0x2c, 0x05, 0x2a, 0x32, 0x10,
  0x0c, 0xf7, 0x0f, 0x05, 0xdb, 0xfd, 0xf1, 0x03, 0x11, 0x22, 0x00, 0x02,
  0x21, 0x2e, 0x0a, 0x14, 0xf8, 0x08, 0x0f, 0x0e, 0xc4, 0x09, 0xed, 0x04,
  0x10, 0x06, 0x15, 0x1f, 0xe7, 0x05, 0x01, 0x12, 0x4d, 0xef, 0x02, 0xd7,
  0xd1, 0x19, 0xb8, 0x0a, 0xef, 0x52, 0x18, 0x21, 0xef, 0x31, 0xe5, 0xf8,
  0xd4, 0x1b, 0x18, 0xd7, 0xe8, 0x0e, 0x11, 0x11, 0xff, 0xf9, 0xef, 0xd4,
  0x05, 0x24, 0xbf, 0x05, 0x19, 0xf0, 0x07, 0x07, 0x1a, 0xf5, 0x04, 0x04,
  0x0a, 0x0f, 0xf5, 0x02, 0xfe, 0x63, 0xfd, 0x23, 0xd8, 0x1a, 0xfd, 0xcf,
  0x2b, 0x04, 0x15, 0x17, 0x0e, 0xfc, 0x16, 0x4c, 0xff, 0x41, 0x91, 0x18,
  0x8d, 0x00, 0xf0, 0x05, 0x17, 0xda, 0xfc, 0xf0, 0x07, 0xdb, 0x01, 0x31,
  0x03, 0x29, 0xb8, 0x0a, 0xbf, 0xf0, 0x26, 0x14, 0x03, 0x0d, 0xda, 0xe5,
  0xff, 0xeb, 0xff, 0x21, 0xf0, 0xdc, 0x9c, 0xef, 0xbe, 0xd6, 0x17, 0xf3,
  0x35, 0x1b, 0xf4, 0xfd, 0xfc, 0xdb, 0xf1, 0x10, 0xe9, 0xd9, 0xea, 0xfa,
  0xc0, 0xdc, 0x03, 0xf2, 0x49, 0x19, 0xf9, 0xeb, 0xec, 0xc3, 0xec, 0xe9,
  0x08, 0xe8, 0xd1, 0x0f, 0xfd, 0xe4, 0xdf, 0xeb, 0x58, 0x07, 0x1d, 0x08,
  0x12, 0xcc, 0x0a, 0xf1, 0x1d, 0xde, 0xca, 0x00, 0xac, 0xec, 0xd6, 0x02,
  0x6a, 0xec, 0x06, 0xe2, 0xf5, 0xda, 0x00, 0xfd, 0x07, 0xe5, 0xbe, 0x0d,
  0xec, 0xa6, 0x06, 0xef, 0x5c, 0xe6, 0x16, 0xdc, 0xf2, 0x34, 0xfb, 0x32,
  0x0c, 0xf0, 0xeb, 0x13, 0x39, 0x83, 0xe7, 0x00, 0x3c, 0xfd, 0xef, 0xca,
  0xf8, 0x24, 0x07, 0x26, 0xfd, 0x03, 0xc3, 0x37, 0x36, 0x9b, 0xd4, 0xf6,
  0x23, 0x11, 0xfe, 0xbb, 0x14, 0x2a, 0x05, 0x4f, 0x16, 0x13, 0xeb, 0x3b,
  0x2a, 0xa5, 0xd8, 0x08, 0x17, 0x2c, 0xe7, 0x81, 0xf6, 0x14, 0x08, 0x21,
  0x1f, 0xf1, 0xdb, 0x07, 0x17, 0xc3, 0xd4, 0x28, 0x02, 0x2a, 0x13, 0x96,
  0xf8, 0xd3, 0x07, 0x0b, 0x15, 0x08, 0x09, 0xe3, 0x29, 0xbc, 0xad, 0x3b,
  0xaf, 0x03, 0x68, 0xc0, 0xf5, 0x0a, 0x0f, 0x10, 0x53, 0xdc, 0x03, 0xe2,
  0x04, 0x09, 0xd7, 0x3d, 0xae, 0x14, 0x23, 0xdf, 0xf2, 0xee, 0xe7, 0xfd,
  0x6d, 0xff, 0x04, 0xd9, 0xf6, 0x14, 0x04, 0x2c, 0x83, 0x04, 0x44, 0x08,
  0xf7, 0xfb, 0x11, 0x4f, 0x62, 0xb5, 0xea, 0xf6, 0xe9, 0x3b, 0x2c, 0x4f,
  0x9e, 0xe0, 0x2c, 0x11, 0x0c, 0xea, 0x04, 0xeb, 0x4a, 0x3b, 0x60, 0xe0,
  0xf2, 0x47, 0x32, 0x17, 0xa5, 0xfa, 0x05, 0xfd, 0xf6, 0x08, 0x0e, 0x19,
  0x18, 0x08, 0x19, 0xc8, 0xff, 0x30, 0x11, 0xfd, 0xa9, 0x35, 0xef, 0x26,
  0x0a, 0xeb, 0xe7, 0xee, 0x02, 0x1d, 0x24, 0xca, 0xdd, 0x2d, 0x0e, 0xdd,
  0xb5, 0xf8, 0xdc, 0x48, 0xef, 0x15, 0xf9, 0x05, 0x00, 0x1d, 0x0d, 0xdb,
  0x17, 0x25, 0xef, 0xd8, 0xd9, 0x1d, 0xc9, 0x37, 0xf0, 0xf0, 0x14, 0xe5,
  0xa0, 0xfb, 0x21, 0x9b, 0x13, 0x13, 0xf6, 0xbc, 0xff, 0xf7, 0xe6, 0x4a,
  0xea, 0xfd, 0xf8, 0xd5, 0xe4, 0x5f, 0xb6, 0x22, 0x12, 0x0a, 0x98, 0xe2,
  0x4c, 0xc5, 0xf9, 0xa1, 0xb5, 0x9a, 0x65, 0xa5, 0xbb, 0x27, 0x44, 0x02,
  0xc0, 0x0f, 0x34, 0x9c, 0x56, 0xca, 0xc0, 0xb3, 0x03, 0x27, 0x1a, 0xed,
  0x98, 0xce, 0xfe, 0x44, 0x97, 0x44, 0x90, 0xcb, 0xa6, 0x45, 0x38, 0xa6,
  0xbe, 0x46, 0x06, 0xe1, 0x98, 0xe1, 0xb1, 0xfc, 0x9d, 0x98, 0x82, 0xd2,
  0x0e, 0xe2, 0x0f, 0xa6, 0xd6, 0xe0, 0x2d, 0x2c, 0xa3, 0x29, 0xdf, 0x0d,
  0x26, 0xd8, 0x0a, 0xa5, 0x9d, 0x32, 0xe6, 0x26, 0x42, 0xe9, 0x43, 0xf2,
  0xe8, 0xba, 0xdb, 0x1a, 0x3f, 0xf7, 0x1c, 0xcc, 0x9a, 0xcc, 0x1f, 0x24,
  0xa2, 0x3a, 0x3e, 0xff, 0xe8, 0x92, 0x0a, 0xbd, 0xe7, 0x1c, 0x3f, 0xbc,
  0xc1, 0x3b, 0xd0, 0xf1, 0x2a, 0x9c, 0xd6, 0x1e, 0x12, 0x0d, 0xd2, 0xa5,
  0x97, 0x4c, 0x85, 0xce, 0x3f, 0xf8, 0xdc, 0xd0, 0xbf, 0xe6, 0x25, 0x30,
  0xc6, 0x27, 0x30, 0x3f, 0xfa, 0xbe, 0xc9, 0x36, 0x01, 0xe4, 0xed, 0xe6,
  0xd6, 0xed, 0xc3, 0x3d, 0xa0, 0x15, 0xf3, 0x37, 0x90, 0x99, 0xfa, 0xa2,
  0x1a, 0x2a, 0xd9, 0xbc, 0xe1, 0xd8, 0xe2, 0xfd, 0xf8, 0xe8, 0xa3, 0x3f,
  0x0c, 0x99, 0x40, 0xbe, 0xc0, 0xac, 0xbd, 0xee, 0x4a, 0x37, 0x4e, 0xc7,
  0xe6, 0x50, 0xfe, 0xc9, 0x2b, 0x3d, 0x84, 0xba, 0xb2, 0x28, 0x33, 0x2c,
  0xe3, 0x00, 0xa9, 0x4b, 0xa6, 0xd5, 0xa1, 0x91, 0xe5, 0x17, 0xd6, 0x59,
  0x9b, 0xd8, 0x3b, 0xe2, 0xb6, 0xae, 0x5a, 0x9c, 0x21, 0x3c, 0x08, 0x81,
  0x15, 0x9b, 0x06, 0xc5, 0xb3, 0x52, 0x96, 0xe0, 0xc2, 0x40, 0x18, 0xd3,
  0x1e, 0xed, 0x4a, 0xfa, 0xdf, 0x9b, 0xac, 0x19, 0x07, 0xc5, 0xbc, 0x15,
  0x56, 0x87, 0xd6, 0x45, 0x14, 0x30, 0xeb, 0x3c, 0x48, 0x91, 0x54, 0x06,
  0xa3, 0x39, 0xe2, 0xdb, 0x46, 0x4e, 0x2f, 0xe0, 0x2f, 0xaa, 0x1e, 0x13,
  0xde, 0x0f, 0x37, 0xd0, 0xf5, 0xfd, 0x48, 0x10, 0xf5, 0x1a, 0x5c, 0xc3,
  0xd8, 0xce, 0xd8, 0xb2, 0x1b, 0x1b, 0xf3, 0x4e, 0x02, 0xae, 0x0d, 0x8e,
  0x07, 0x46, 0x4a, 0x2c, 0x18, 0x03, 0xcf, 0x03, 0x93, 0xdc, 0xc2, 0x0b,
  0xe1, 0x2b, 0x0d, 0x14, 0xae, 0xfc, 0xea, 0x0d, 0x21, 0xf8, 0x0d, 0xae,
  0x12, 0xd0, 0x3c, 0xd7, 0xc0, 0x0a, 0xd5, 0x21, 0xc4, 0xd8, 0xbf, 0x1b,
  0xf5, 0xb4, 0x0e, 0x21, 0xd5, 0xb2, 0xc9, 0x97, 0xee, 0xaa, 0xf9, 0xa5,
  0xeb, 0x44, 0x00, 0x22, 0x63, 0x5d, 0xf3, 0x24, 0xb8, 0xb8, 0x9e, 0x14,
  0xe5, 0xd2, 0xc2, 0xac, 0x5a, 0xdc, 0x51, 0xa7, 0x0c, 0xb8, 0x43, 0x49,
  0x4b, 0x07, 0x01, 0x57, 0x9d, 0xf5, 0xfd, 0xc0, 0xcf, 0xa7, 0xcc, 0xac,
  0x00, 0xf3, 0xa1, 0xfc, 0xea, 0x00, 0xdd, 0xf1, 0xf6, 0xc0, 0xfb, 0x15,
  0xed, 0xe9, 0x03, 0x25, 0xcd, 0x3f, 0xfe, 0xfc, 0xfc, 0x03, 0xdd, 0xf3,
  0xf3, 0xad, 0xcd, 0x03, 0x04, 0xeb, 0x04, 0x33, 0xca, 0x10, 0x06, 0xf0,
  0x1f, 0xeb, 0x04, 0xfb, 0xf2, 0xc3, 0xbf, 0xf9, 0xed, 0xf0, 0xf1, 0x29,
  0xcf, 0xf2, 0x08, 0x0b, 0x2c, 0xed, 0xf8, 0xe2, 0xfd, 0x06, 0xac, 0x0c,
  0xf8, 0xec, 0x03, 0x3e, 0xd3, 0x0a, 0xe8, 0xe7, 0xee, 0xc5, 0x03, 0xcf,
  0x15, 0xf4, 0xcb, 0x12, 0x0b, 0xf3, 0xf8, 0x45, 0xbf, 0xd5, 0x03, 0xf1,
  0xe5, 0xe2, 0x07, 0xb5, 0xf8, 0x0b, 0xac, 0x11, 0xf1, 0xec, 0x0e, 0x46,
  0xea, 0xcc, 0x10, 0xef, 0xe8, 0xe4, 0x26, 0xac, 0xf1, 0x3e, 0xd9, 0xfd,
  0x03, 0xf1, 0xf6, 0x17, 0xe7, 0xca, 0x3c, 0x00, 0xd2, 0x13, 0x25, 0xc3,
  0x17, 0x04, 0x0b, 0x09, 0xf0, 0xe7, 0x1d, 0x1e, 0x19, 0x21, 0xd9, 0x16,
  0xce, 0x0d, 0x19, 0xf6, 0x3f, 0x0b, 0x2d, 0x05, 0xed, 0x0a, 0xfa, 0xe8,
  0x0d, 0x08, 0x02, 0x15, 0xbb, 0x29, 0x25, 0xf3, 0x2b, 0xdb, 0x46, 0x14,
  0xf7, 0xe0, 0x0c, 0xe0, 0x35, 0x0b, 0xd2, 0x20, 0x9a, 0x1e, 0x16, 0x03,
  0x14, 0xed, 0x47, 0xfa, 0x0e, 0x39, 0x04, 0xd9, 0x2f, 0x07, 0xb6, 0x2a,
  0xd3, 0x33, 0x1a, 0x30, 0x29, 0xc8, 0x46, 0x09, 0xeb, 0xe9, 0x10, 0xab,
  0x29, 0x07, 0xcf, 0x1d, 0x28, 0x39, 0xfa, 0x23, 0x09, 0xff, 0x2f, 0xff,
  0x16, 0xde, 0xf4, 0x8e, 0x10, 0x07, 0xd8, 0x24, 0x16, 0x28, 0xfc, 0x12,
  0xf6, 0xe1, 0x6c, 0xea, 0xfe, 0x02, 0x10, 0xab, 0x31, 0xf8, 0xe8, 0x1f,
  0x1b, 0x1f, 0xe9, 0x24, 0x03, 0xdd, 0x49, 0xf7, 0xed, 0xfd, 0x1a, 0xd1,
  0xfe, 0x18, 0xdb, 0xf7, 0x37, 0xfd, 0xf9, 0x18, 0xff, 0xd9, 0x37, 0xe7,
  0x0e, 0xd5, 0x15, 0xec, 0x0b, 0xf8, 0xe5, 0x09, 0x3d, 0x01, 0xfd, 0x31,
  0x1a, 0xd0, 0x52, 0xb4, 0x11, 0xcf, 0xef, 0xeb, 0x1d, 0xe6, 0x2a, 0x06,
  0x7e, 0xe2, 0xde, 0x2c, 0x0a, 0x0a, 0x4d, 0xa2, 0x0d, 0xfe, 0xf9, 0xf7,
  0x04, 0x0e, 0x08, 0xdc, 0x36, 0xcd, 0xeb, 0x26, 0xf1, 0x07, 0x1d, 0xb5,
  0xeb, 0x27, 0xf5, 0xfc, 0xf8, 0xef, 0x7f, 0xde, 0x4f, 0xd8, 0xfc, 0x24,
  0x27, 0xe2, 0xff, 0xd7, 0x03, 0x19, 0xff, 0x08, 0xe1, 0xd1, 0x31, 0xc1,
  0x40, 0xc0, 0xf4, 0x06, 0x19, 0x01, 0xeb, 0xf4, 0x03, 0x03, 0x02, 0x0a,
  0xdc, 0xce, 0x3d, 0xd3, 0x37, 0xc4, 0x05, 0x2c, 0x1a, 0x0f, 0xda, 0x1f,
  0x13, 0x10, 0xf8, 0xf2, 0x13, 0xcc, 0x54, 0xe3, 0x12, 0xcf, 0xfb, 0xfc,
  0x33, 0x44, 0x83, 0x10, 0x11, 0x0d, 0x0a, 0x01, 0xf2, 0x94, 0xe7, 0x04,
  0x39, 0xe3, 0x16, 0x29, 0xd2, 0xec, 0xc2, 0xfa, 0xef, 0xde, 0xf9, 0xc3,
  0xd9, 0xd9, 0x0f, 0xca, 0x15, 0xff, 0x27, 0xd1, 0x1d, 0xe3, 0xf7, 0x13,
  0x11, 0x18, 0x04, 0x07, 0xef, 0xda, 0x17, 0xec, 0x23, 0x06, 0x20, 0xbc,
  0xf7, 0xcd, 0x25, 0x07, 0x02, 0x34, 0x0b, 0x19, 0xd3, 0xda, 0x09, 0x14,
  0x2c, 0xf0, 0x09, 0xa9, 0xf5, 0xb9, 0x1a, 0xfd, 0xf3, 0x31, 0xf8, 0x0f,
  0x00, 0x07, 0xdd, 0x09, 0x17, 0x15, 0x22, 0xad, 0x16, 0xd2, 0xf9, 0x0e,
  0xed, 0x5b, 0x0b, 0x2b, 0xf9, 0x17, 0xf2, 0x0d, 0xfb, 0x01, 0xe3, 0xb9,
  0x53, 0xd3, 0x23, 0xea, 0xf8, 0x73, 0x08, 0x0b, 0x12, 0x08, 0xb9, 0x26,
  0xf3, 0xfb, 0xf8, 0xea, 0x45, 0xbd, 0x1d, 0xe4, 0x0c, 0x2d, 0x0f, 0xd5,
  0x15, 0x10, 0x96, 0x32, 0xf0, 0x06, 0xe5, 0xf6, 0x78, 0xc7, 0x27, 0xf1,
  0xff, 0x60, 0xed, 0xdb, 0x10, 0x04, 0xc2, 0x1a, 0xf3, 0x02, 0xde, 0x00,
  0x54, 0xe2, 0x0c, 0xee, 0xee, 0x48, 0x02, 0xc3, 0x20, 0x15, 0xdb, 0x3f,
  0xe8, 0xff, 0xdb, 0xf5, 0x48, 0xf0, 0x33, 0xcf, 0x07, 0x14, 0xfa, 0xc6,
  0x1b, 0xfa, 0xf1, 0x23, 0x15, 0xec, 0xe4, 0x23, 0x18, 0xf3, 0x2b, 0xcb,
  0x01, 0xfc, 0x13, 0xd8, 0x2f, 0x18, 0xca, 0xfe, 0x2a, 0xee, 0xf8, 0x27,
  0x06, 0x06, 0x16, 0xe7, 0x0e, 0xec, 0x0e, 0xee, 0x2c, 0x33, 0x00, 0xea,
  0xf9, 0x12, 0x0c, 0x30, 0xc1, 0xee, 0x0d, 0xd5, 0x09, 0x07, 0x06, 0xe3,
  0x13, 0x18, 0x33, 0xb9, 0x15, 0x07, 0xf3, 0x2a, 0xbf, 0x0b, 0xf1, 0xd7,
  0xfd, 0xb4, 0xf0, 0x16, 0xfc, 0x48, 0x43, 0xcd, 0x35, 0xf6, 0xfb, 0x37,
  0xc5, 0x37, 0xf7, 0xc8, 0xf9, 0xd6, 0x00, 0xff, 0x0d, 0x1a, 0x3e, 0xe1,
  0x2f, 0xd8, 0x14, 0x0c, 0xc1, 0x39, 0xd9, 0xd9, 0xf5, 0xe1, 0xf2, 0xe9,
  0x02, 0x40, 0x6e, 0xdf, 0x2c, 0xe4, 0x1a, 0x00, 0xbc, 0x3d, 0xd7, 0x00,
  0xee, 0xbe, 0x07, 0x0a, 0x05, 0x31, 0x19, 0xdb, 0x04, 0xe7, 0x2d, 0xf0,
  0xc1, 0x1a, 0xc3, 0x06, 0xfd, 0x97, 0x0d, 0x15, 0x08, 0x14, 0x03, 0xec,
  0xdf, 0x12, 0x36, 0x10, 0xe1, 0x13, 0xcc, 0x1e, 0xf4, 0x81, 0xe9, 0x11,
  0x0c, 0x09, 0x0b, 0xfd, 0xe6, 0x06, 0x0b, 0xf2, 0xf9, 0xf4, 0x06, 0x29,
  0x11, 0xb1, 0xed, 0x1c, 0xcb, 0xef, 0x91, 0xfc, 0xcb, 0x1c, 0xf1, 0x11,
  0x07, 0xc9, 0x21, 0x29, 0x0a, 0xba, 0xfe, 0x1e, 0xb5, 0xfb, 0xbc, 0x2c,
  0xf1, 0x0c, 0xeb, 0xf6, 0x0e, 0xe7, 0x0f, 0x1a, 0xf2, 0xe3, 0xf9, 0xd9,
  0xa3, 0xdf, 0xb6, 0xe6, 0xe3, 0xe7, 0xcb, 0xd4, 0x04, 0xfc, 0xee, 0x02,
  0xf1, 0xf0, 0xf6, 0xf8, 0x25, 0xee, 0xf4, 0x32, 0xde, 0x21, 0xfa, 0xce,
  0xe8, 0xef, 0xd8, 0xf8, 0xf2, 0x17, 0x09, 0xe2, 0xe6, 0xd5, 0x1a, 0x0d,
  0xf3, 0xf2, 0x08, 0xc3, 0x30, 0xb7, 0xd3, 0x13, 0xf7, 0x21, 0xfc, 0x1a,
  0x81, 0xf2, 0x3d, 0x06, 0xf3, 0x17, 0x01, 0xcb, 0x24, 0xf0, 0xe9, 0x15,
  0x00, 0x16, 0x17, 0x11, 0xd2, 0x41, 0x2a, 0x16, 0xf7, 0x14, 0x10, 0xb8,
  0x15, 0xe7, 0xdd, 0x06, 0xff, 0x08, 0x11, 0xe4, 0xba, 0x40, 0x14, 0x07,
  0x04, 0x13, 0x02, 0xe2, 0x17, 0xe0, 0xdf, 0xfc, 0x07, 0x1c, 0x14, 0xc9,
  0xc3, 0x36, 0xcd, 0xea, 0xf5, 0xf7, 0xee, 0x11, 0x2c, 0x15, 0xf0, 0x0e,
  0xf4, 0xef, 0xfb, 0xd4, 0xf0, 0x26, 0xd9, 0xe0, 0xff, 0xed, 0xf2, 0x16,
  0xf7, 0xdf, 0x0e, 0x06, 0xee, 0xe8, 0x02, 0xb8, 0x1b, 0x08, 0xf1, 0xe9,
  0xff, 0x0e, 0x07, 0x29, 0xeb, 0xef, 0x27, 0x01, 0xfe, 0xea, 0xfe, 0xbf,
  0x36, 0x2d, 0xf5, 0xea, 0xfd, 0x07, 0x1a, 0x19, 0xef, 0xcc, 0x29, 0x15,
  0xfe, 0xf9, 0xf7, 0xfd, 0x0e, 0xfc, 0xe5, 0x12, 0xff, 0x00, 0x24, 0x09,
  0xf1, 0xc9, 0x14, 0x0c, 0x05, 0xf2, 0xfc, 0x17, 0x00, 0x22, 0x2c, 0x08,
  0xfb, 0xfe, 0x30, 0x05, 0xea, 0xdc, 0xff, 0x09, 0x02, 0xe6, 0x05, 0x15,
  0xfb, 0x19, 0x05, 0xe9, 0xd2, 0xfc, 0x1c, 0xe8, 0xe9, 0xd3, 0xe6, 0x0d,
  0x01, 0xd1, 0xfe, 0x26, 0xe0, 0x1d, 0xef, 0xf8, 0xfc, 0xfc, 0x16, 0xf0,
  0xf2, 0xd9, 0xf0, 0xf3, 0xee, 0xe3, 0x00, 0x44, 0xc8, 0x1b, 0xff, 0xf5,
  0xf8, 0xd3, 0xef, 0xd3, 0x09, 0xf8, 0xea, 0xf9, 0xff, 0xfc, 0xfd, 0x26,
  0xe0, 0x1a, 0xe4, 0xfa, 0x0f, 0xd4, 0xf8, 0x08, 0xf3, 0xfe, 0x06, 0xe7,
  0x0c, 0x12, 0xf7, 0x39, 0xfe, 0x27, 0xfd, 0x0c, 0x01, 0xc4, 0xe8, 0x12,
  0x01, 0xfb, 0x14, 0xff, 0x0c, 0x07, 0xfc, 0xda, 0x15, 0x26, 0xd2, 0xf3,
  0xf0, 0xb0, 0xf6, 0x0b, 0xf6, 0xfd, 0x2c, 0xee, 0xfe, 0x0c, 0xf3, 0x1a,
  0x30, 0x07, 0xcb, 0xd3, 0xfc, 0xdc, 0xf8, 0x24, 0xf8, 0xf8, 0x24, 0x09,
  0xf5, 0x00, 0xfe, 0x3b, 0x1b, 0x0e, 0x38, 0xc1, 0x0c, 0xc3, 0xf0, 0x15,
  0xf7, 0x16, 0x25, 0xff, 0x01, 0xe9, 0x13, 0xf8, 0x1c, 0x2d, 0xe4, 0xe1,
  0x15, 0xe9, 0xf2, 0x12, 0xe1, 0xe1, 0x14, 0x0e, 0xf7, 0xf8, 0xef, 0xf6,
  0x0b, 0x45, 0x09, 0xfd, 0xf1, 0x13, 0xf9, 0x16, 0xe7, 0xe9, 0x1f, 0x08,
  0x09, 0xf0, 0x0a, 0xff, 0x0f, 0x08, 0x28, 0x09, 0x15, 0x0c, 0xea, 0x2c,
  0xc9, 0xda, 0x0d, 0x1d, 0x0b, 0x03, 0xf6, 0xfa, 0x14, 0xe3, 0xf5, 0xfd,
  0xcc, 0x29, 0x03, 0x2d, 0xd1, 0xd3, 0x2a, 0x16, 0xf0, 0xf3, 0x04, 0x47,
  0x00, 0x1b, 0xcd, 0xb9, 0xe3, 0x1b, 0x09, 0xda, 0xdf, 0x17, 0xf7, 0x1a,
  0xfd, 0x1c, 0xf0, 0xe4, 0x0d, 0x0a, 0x06, 0xe9, 0xc4, 0x1a, 0x05, 0x07,
  0xe0, 0x51, 0xec, 0x02, 0xf9, 0x1e, 0x05, 0xea, 0x08, 0x31, 0xb7, 0xfc,
  0xdc, 0x28, 0x03, 0x18, 0xd6, 0x1f, 0xd4, 0xf5, 0xf1, 0x34, 0x01, 0xec,
  0xfb, 0x28, 0xe2, 0x09, 0x3c, 0x14, 0xe6, 0xf1, 0xe9, 0x32, 0xd4, 0x0e,
  0xfe, 0x3d, 0x0f, 0x09, 0x02, 0x16, 0x19, 0x14, 0x7f, 0x0f, 0xee, 0xe8,
  0xba, 0x1e, 0xea, 0x11, 0x04, 0x1e, 0xf2, 0xee, 0xee, 0x26, 0xec, 0x19,
  0x7a, 0x01, 0xd9, 0xd3, 0xe8, 0x24, 0xd1, 0x09, 0xff, 0xff, 0x0d, 0x19,
  0x19, 0x3a, 0xe9, 0x14, 0x4b, 0x10, 0xf9, 0xde, 0xd7, 0x2d, 0xe2, 0xfe,
  0xf6, 0xd1, 0x0a, 0x0e, 0x1c, 0x29, 0xc9, 0x05, 0x44, 0x0f, 0x09, 0xe6,
  0xdf, 0x2a, 0xf3, 0xfa, 0xfe, 0xaf, 0xfb, 0xc3, 0x1a, 0x5e, 0xeb, 0x08,
  0x33, 0x08, 0xff, 0x00, 0xf3, 0x29, 0x06, 0xe9, 0x0c, 0xf0, 0x07, 0xdc,
  0xf3, 0x22, 0x18, 0x1d, 0x19, 0x08, 0xed, 0x06, 0x01, 0x12, 0x06, 0xfc,
  0xee, 0x09, 0xef, 0x0f, 0xe9, 0x1d, 0x10, 0x00, 0x18, 0xed, 0xec, 0x01,
  0x1d, 0xdf, 0x13, 0x0c, 0x0e, 0x33, 0x14, 0xec, 0xf1, 0x42, 0x03, 0x0f,
  0x16, 0xec, 0x0c, 0xd2, 0x4c, 0xe2, 0xea, 0x21, 0xed, 0x10, 0x05, 0x11,
  0xc8, 0x30, 0x07, 0x08, 0x29, 0x00, 0xfb, 0xe3, 0x4c, 0xd0, 0xf3, 0x10,
  0xfe, 0x4b, 0x06, 0xef, 0xda, 0x2c, 0xfa, 0x11, 0x17, 0x2d, 0x00, 0xb2,
  0x19, 0xce, 0x2a, 0x3c, 0xed, 0x4b, 0x14, 0xf9, 0xf5, 0x25, 0xfc, 0xfa,
  0xdf, 0x08, 0xed, 0xdf, 0x1a, 0xe7, 0x1e, 0x1a, 0xf9, 0x13, 0xfa, 0xf8,
  0x19, 0x12, 0xe2, 0xd9, 0xd2, 0x29, 0x00, 0x01, 0xda, 0x19, 0xd4, 0x1c,
  0xed, 0xfa, 0xf5, 0xff, 0x11, 0x07, 0xdd, 0xf3, 0xc2, 0x24, 0xff, 0xe9,
  0xde, 0x5a, 0xe0, 0x0e, 0xf1, 0x07, 0xfe, 0xc1, 0x07, 0x01, 0x05, 0xf5,
  0x09, 0x13, 0xf7, 0xfe, 0xe7, 0x53, 0xce, 0x13, 0xff, 0xfa, 0xf3, 0xbc,
  0x19, 0xe1, 0x14, 0xfd, 0x28, 0x19, 0xfa, 0x0b, 0xdf, 0x3f, 0xd1, 0x1d,
  0x05, 0x12, 0x16, 0xed, 0x06, 0x1f, 0x05, 0xfa, 0x15, 0x14, 0xfa, 0xf8,
  0xd6, 0x39, 0xd0, 0x28, 0xff, 0xf0, 0xfb, 0xff, 0x0f, 0x28, 0x25, 0x11,
  0x16, 0x12, 0x0a, 0x0d, 0xdc, 0x00, 0xdb, 0x1c, 0xfe, 0xf4, 0x0c, 0xef,
  0x0b, 0x0f, 0x07, 0xf0, 0x09, 0x23, 0x34, 0x11, 0xc9, 0x04, 0x16, 0x16,
  0x09, 0xdc, 0x08, 0x09, 0xdd, 0x13, 0x26, 0xe5, 0x46, 0x11, 0x36, 0x04,
  0xcc, 0xda, 0xdc, 0x31, 0x09, 0xa5, 0x13, 0x28, 0xfa, 0xed, 0xee, 0xf3,
  0xda, 0xf8, 0xe6, 0xe2, 0xf5, 0xf2, 0xdf, 0xe9, 0x0f, 0xec, 0xf0, 0x31,
  0x2d, 0xe9, 0x21, 0xf8, 0xd3, 0x05, 0xe4, 0xe2, 0xfc, 0x1c, 0x13, 0x06,
  0xf1, 0x0d, 0xf6, 0x0a, 0x26, 0x29, 0x30, 0x0b, 0xf7, 0xeb, 0x08, 0xe7,
  0xe0, 0x05, 0xf7, 0x06, 0x05, 0x3e, 0x00, 0x03, 0x12, 0x01, 0x1f, 0xd9,
  0xda, 0x09, 0xf8, 0xde, 0x12, 0x0c, 0xea, 0xf3, 0xeb, 0x00, 0xe8, 0xde,
  0xf1, 0x19, 0x12, 0xdf, 0xa2, 0x1c, 0xfb, 0xe8, 0x28, 0x15, 0x15, 0xf5,
  0xf2, 0x12, 0xe7, 0x09, 0x0b, 0x32, 0x20, 0xeb, 0xcb, 0xef, 0xf9, 0xf1,
  0x31, 0x23, 0x0c, 0x02, 0xf4, 0x2b, 0x19, 0xe8, 0x04, 0x21, 0x0e, 0xf0,
  0xe9, 0x03, 0xd9, 0xe7, 0x32, 0x1f, 0x1b, 0xed, 0x02, 0x0d, 0x15, 0xd1,
  0xe9, 0x38, 0xf0, 0xe3, 0x9d, 0x2d, 0xec, 0xd0, 0x50, 0xfe, 0xfc, 0x06,
  0x08, 0xe7, 0xed, 0xfb, 0xf9, 0x74, 0x05, 0xe7, 0xd6, 0x16, 0x0c, 0xd8,
  0x5c, 0xe3, 0x0c, 0xf8, 0x05, 0x06, 0xff, 0xd3, 0x29, 0x68, 0xeb, 0xed,
  0xb9, 0x0e, 0x11, 0xda, 0x2f, 0x12, 0x0e, 0xeb, 0x00, 0x39, 0xf5, 0x02,
  0x15, 0x54, 0xe7, 0xed, 0xc4, 0x1b, 0xff, 0xe5, 0x39, 0x0b, 0x3c, 0xcd,
  0xfd, 0xec, 0xf2, 0xf0, 0x14, 0x58, 0xf5, 0x0b, 0xe0, 0xe6, 0x1f, 0xdc,
  0x44, 0x1a, 0x1e, 0xea, 0x11, 0x14, 0x0b, 0x09, 0x04, 0x31, 0xfb, 0x0d,
  0xcb, 0x15, 0x03, 0xde, 0x57, 0x04, 0x2a, 0xd7, 0xec, 0xf9, 0xfb, 0xd5,
  0x27, 0x2c, 0x0a, 0x05, 0xdb, 0xfa, 0xfe, 0xfc, 0x39, 0x1b, 0x2b, 0xd0,
  0xf5, 0xe9, 0xfe, 0xbd, 0x07, 0x63, 0x09, 0xdd, 0xed, 0x1f, 0xf2, 0x03,
  0x2f, 0x09, 0x1c, 0xbe, 0xfc, 0x10, 0xf0, 0xa9, 0xeb, 0x62, 0x05, 0x0b,
  0xf0, 0x1e, 0x05, 0xfa, 0x47, 0x2b, 0x3b, 0xe2, 0xfe, 0x0f, 0xf3, 0x90,
  0xee, 0x7f, 0xd4, 0xd8, 0xd2, 0x0a, 0x02, 0xfd, 0x35, 0xe7, 0x2d, 0x15,
  0x11, 0x1f, 0xfa, 0xd5, 0x02, 0x5d, 0x31, 0xee, 0xd2, 0x03, 0x1e, 0x39,
  0xfe, 0xfc, 0x2e, 0xfc, 0xfa, 0xff, 0xf3, 0xb9, 0xe6, 0x71, 0x1c, 0x17,
  0xd4, 0x01, 0x27, 0xf8, 0x2e, 0xf4, 0x24, 0x11, 0x08, 0xf4, 0x0a, 0xd2,
  0xc9, 0x0c, 0xb6, 0xe6, 0x06, 0x04, 0x16, 0x2b, 0x57, 0x87, 0x10, 0x27,
  0xe9, 0xe8, 0x13, 0xd7, 0xc9, 0x1c, 0xf5, 0xef, 0xd1, 0x23, 0x5c, 0x14,
  0x20, 0xb4, 0xed, 0x3c, 0x11, 0xcf, 0xed, 0x0b, 0xf7, 0xea, 0x12, 0x22,
  0xe0, 0xe2, 0x52, 0x24, 0x1d, 0x1e, 0xeb, 0x2a, 0x16, 0xdf, 0xf4, 0xee,
  0x97, 0xe2, 0xe6, 0x24, 0xee, 0x07, 0x3f, 0x2f, 0x1c, 0x93, 0xad, 0x44,
  0x08, 0xd2, 0x1c, 0x1d, 0x18, 0xe3, 0x26, 0x06, 0xe1, 0x17, 0x2c, 0xfb,
  0x06, 0x1b, 0xfe, 0xf0, 0x14, 0x10, 0x0c, 0x09, 0x11, 0xe9, 0xeb, 0xd5,
  0x20, 0xfa, 0x12, 0xdf, 0x0e, 0xbd, 0xe1, 0xfa, 0xd9, 0x3d, 0xe8, 0xdc,
  0xf5, 0xe1, 0xf5, 0x1b, 0x25, 0xe0, 0xf2, 0x07, 0x14, 0xad, 0xdd, 0xdf,
  0x02, 0x7f, 0x04, 0xf1, 0xfb, 0xda, 0xc9, 0x1a, 0xfa, 0xc6, 0x0e, 0xd6,
  0x11, 0xe5, 0xe6, 0xee, 0xf6, 0x71, 0xfe, 0x13, 0x06, 0xe8, 0x00, 0x23,
  0xe3, 0x07, 0xc3, 0xe0, 0xfa, 0x03, 0xef, 0x0b, 0xf6, 0x6c, 0x18, 0xde,
  0xa5, 0x21, 0xf7, 0xc9, 0xf5, 0x25, 0x0d, 0xeb, 0x09, 0xdb, 0xc5, 0xd1,
  0xe0, 0x22, 0x0e, 0x19, 0xfe, 0x05, 0xdc, 0xbd, 0x09, 0x09, 0xcc, 0xee,
  0x29, 0x23, 0x02, 0xea, 0x2d, 0x39, 0x18, 0x0a, 0x13, 0xdb, 0x24, 0xcb,
  0xdb, 0x2b, 0xc6, 0x0f, 0xed, 0xd5, 0xf8, 0xcd, 0xe4, 0xf4, 0x19, 0xd5,
  0x1f, 0xf1, 0xd4, 0xea, 0x13, 0x00, 0xdb, 0x1b, 0xe4, 0xea, 0x1f, 0xca,
  0xd8, 0x26, 0xe9, 0xd6, 0xd5, 0xf6, 0x34, 0xfd, 0x3b, 0x0e, 0x13, 0x2a,
  0xdf, 0xc4, 0xd4, 0xd6, 0x10, 0xe5, 0x27, 0x0c, 0xd4, 0x1f, 0x09, 0xbf,
  0xf4, 0xf2, 0xf7, 0x21, 0x0d, 0xf6, 0xdf, 0x09, 0xed, 0x01, 0xd7, 0xe9,
  0x02, 0xea, 0xdd, 0xde, 0x35, 0xf6, 0x03, 0xd0, 0xf0, 0xdf, 0xda, 0xde,
  0xde, 0x0c, 0x16, 0xff, 0xc9, 0x2a, 0x27, 0xed, 0x0f, 0x21, 0xcd, 0xdb,
  0x24, 0x10, 0xd4, 0xfb, 0x25, 0x16, 0xe5, 0x22, 0xf9, 0xf9, 0xff, 0xcd,
  0x01, 0x48, 0xde, 0xe2, 0x2e, 0xe2, 0xeb, 0xfc, 0xd7, 0xeb, 0xfc, 0xf3,
  0x18, 0x26, 0xef, 0xfb, 0x22, 0xf6, 0xc5, 0x3c, 0x07, 0x05, 0xeb, 0x0d,
  0x1f, 0xf7, 0xdb, 0x08, 0xd7, 0xe2, 0xdd, 0xe3, 0x30, 0x09, 0xcb, 0x33,
  0x03, 0xe2, 0x0e, 0xce, 0xe9, 0xf0, 0x06, 0xd9, 0x06, 0x0d, 0xd8, 0xd9,
  0x0b, 0x11, 0xd9, 0x3d, 0x1f, 0x0a, 0xfa, 0xed, 0xfe, 0x1b, 0xd4, 0x1f,
  0xd1, 0xf8, 0xe6, 0x20, 0xcc, 0x21, 0x14, 0x16, 0xf9, 0xe0, 0xef, 0xf1,
  0xff, 0xe4, 0x0c, 0xfa, 0xca, 0xf4, 0x03, 0xca, 0x03, 0xf5, 0xd0, 0xef,
  0x2f, 0xdc, 0xcf, 0xe1, 0xfa, 0x1b, 0x11, 0xf3, 0xf5, 0x2b, 0xf4, 0x15,
  0x21, 0x1a, 0xd0, 0xdd, 0xd8, 0x0f, 0xe0, 0x1e, 0x0f, 0xed, 0x0a, 0x18,
  0xd6, 0x37, 0x1a, 0x00, 0xd7, 0xf9, 0xc6, 0xfa, 0x22, 0x1e, 0xc1, 0xfa,
  0xec, 0x18, 0xe8, 0xc0, 0xff, 0x27, 0xcf, 0x2b, 0xd9, 0x2a, 0xe7, 0xf8,
  0xde, 0x19, 0xdd, 0x0c, 0xfa, 0xb8, 0x18, 0xe2, 0x14, 0x2b, 0x47, 0x03,
  0xf8, 0x20, 0xfc, 0x00, 0xde, 0x17, 0xec, 0xd8, 0x2b, 0xbd, 0xdb, 0xdd,
  0x8d, 0x46, 0xec, 0xcc, 0xf1, 0xc5, 0xfc, 0xac, 0xba, 0xe4, 0xe9, 0xa2,
  0x44, 0xc9, 0xe4, 0xf6, 0x20, 0x34, 0x27, 0xb5, 0xd1, 0x09, 0xd1, 0xce,
  0x02, 0xdb, 0x42, 0xa3, 0xf6, 0xee, 0xb4, 0x95, 0xe7, 0xf4, 0x3d, 0xee,
  0x33, 0x06, 0x39, 0xfc, 0xd4, 0x1a, 0x2b, 0x05, 0x25, 0xaf, 0x0e, 0x43,
  0xa5, 0xf7, 0xef, 0xc0, 0x17, 0xe3, 0xa9, 0xd9, 0x09, 0xdf, 0xf4, 0xa8,
  0x56, 0x0b, 0x4a, 0xca, 0xa2, 0xf2, 0xf6, 0xae, 0xc5, 0x35, 0x3f, 0x00,
  0xeb, 0x40, 0xf4, 0xb9, 0xeb, 0xaa, 0x16, 0xe3, 0x81, 0xa8, 0x43, 0x8b,
  0xf5, 0x3d, 0x98, 0x36, 0xa1, 0xb5, 0x1e, 0x13, 0x20, 0x2c, 0x24, 0x88,
  0x2e, 0x96, 0xe4, 0x1a, 0x87, 0x26, 0xfa, 0xed, 0xad, 0xc6, 0xb2, 0xa2,
  0xdd, 0x1a, 0x57, 0xfe, 0x36, 0x1f, 0xf8, 0xcd, 0xdd, 0x9d, 0x10, 0xa7,
  0xcc, 0x84, 0xbd, 0xdc, 0xf6, 0x04, 0x50, 0xea, 0x0f, 0xaa, 0xa1, 0x37,
  0x1d, 0xfe, 0x3e, 0x36, 0x2e, 0x98, 0xd9, 0xab, 0xda, 0xa2, 0x3b, 0xa6,
  0xe0, 0xae, 0xc2, 0x29, 0x9b, 0x22, 0xe7, 0x39, 0xa1, 0x34, 0xad, 0xf8,
  0xea, 0xd3, 0xc3, 0xe6, 0xfe, 0x86, 0x2f, 0x9b, 0xe4, 0xbc, 0x35, 0xc0,
  0x8b, 0xe6, 0x46, 0xff, 0xcf, 0x24, 0x18, 0xa8, 0xb6, 0x03, 0x5a, 0x28,
  0xc2, 0xf6, 0x98, 0x0e, 0xde, 0x88, 0x00, 0xe5, 0x0e, 0xc3, 0x43, 0x30,
  0xe9, 0x98, 0xba, 0x11, 0xeb, 0xbc, 0x9c, 0xf4, 0xb9, 0xce, 0xdb, 0x36,
  0x43, 0xc7, 0xbc, 0xf9, 0xab, 0x2e, 0xb4, 0x8d, 0x25, 0x9a, 0x03, 0xc8,
  0x3f, 0xa7, 0x42, 0xc0, 0xef, 0xe8, 0xec, 0xda, 0xca, 0x20, 0xff, 0x25,
  0xfa, 0xf3, 0x86, 0xb1, 0xd4, 0xdc, 0xca, 0x93, 0x20, 0x2c, 0x31, 0x43,
  0xd7, 0xf3, 0xd1, 0xe1, 0xb4, 0x27, 0xf8, 0xdc, 0xe0, 0x11, 0x0c, 0x30,
  0xf0, 0xa7, 0x00, 0xf0, 0x38, 0x2f, 0xbf, 0x23, 0xc2, 0x83, 0xae, 0xc8,
  0x9c, 0xc8, 0xf9, 0x9f, 0xb1, 0xed, 0xdc, 0x24, 0x1c, 0x01, 0x45, 0xb4,
  0x29, 0x00, 0x83, 0x94, 0x0e, 0x92, 0xbb, 0xe3, 0xdc, 0x14, 0x53, 0xa2,
  0xd9, 0x9b, 0x52, 0x21, 0xe6, 0x20, 0xa1, 0x20, 0x1a, 0xff, 0x99, 0xa4,
  0xb8, 0xa6, 0xe7, 0xb2, 0x9c, 0xd3, 0xcd, 0xed, 0x95, 0xd9, 0x30, 0x3b,
  0x60, 0xa2, 0xb9, 0xcc, 0x03, 0x9f, 0x5d, 0x9e, 0x39, 0x30, 0x4a, 0xe3,
  0xf2, 0x13, 0xd9, 0x0f, 0xa9, 0x3a, 0xf2, 0x3a, 0xc2, 0xc5, 0x5e, 0x88,
  0xfb, 0xd7, 0x1a, 0x27, 0x2d, 0xf2, 0xd4, 0x29, 0x33, 0x19, 0xc9, 0xd3,
  0x56, 0xb4, 0x48, 0xb5, 0xf6, 0x2e, 0x39, 0x07, 0xaa, 0x92, 0x19, 0xfb,
  0x9d, 0x9b, 0xac, 0xb2, 0x48, 0xee, 0x29, 0xa1, 0x98, 0x28, 0x2d, 0xaf,
  0x34, 0x0b, 0x85, 0xa1, 0xd2, 0x3d, 0xec, 0x25, 0x05, 0x34, 0xeb, 0x09,
  0x0c, 0x2d, 0xd1, 0xb7, 0x26, 0xcb, 0xc7, 0xfb, 0xb7, 0xe4, 0xf2, 0x3d,
  0x25, 0xb0, 0x1a, 0x44, 0x0f, 0x4a, 0xa9, 0xa0, 0xe8, 0xec, 0x0b, 0xc7,
  0x37, 0x2a, 0xc6, 0xa0, 0x39, 0x0d, 0xd1, 0xf9, 0x10, 0x3a, 0x05, 0x0c,
  0x50, 0x38, 0x8b, 0x23, 0xa1, 0x07, 0x06, 0x10, 0x5c, 0xd6, 0x40, 0xd7,
  0x2b, 0x13, 0x24, 0x53, 0x1b, 0x90, 0x30, 0x97, 0xc2, 0x22, 0xd1, 0x42,
  0x49, 0xba, 0xe2, 0x21, 0xbb, 0xa0, 0xfc, 0xb8, 0x45, 0xbd, 0xbe, 0xa2,
  0x8e, 0x26, 0xac, 0x3d, 0xc2, 0x4c, 0x3c, 0x0a, 0xb6, 0x2c, 0x2a, 0xae,
  0x28, 0xd4, 0xb8, 0xf9, 0x1a, 0xef, 0xbc, 0xa6, 0x0e, 0xcf, 0x32, 0xf2,
  0x4c, 0xc7, 0xd3, 0x92, 0xb3, 0xcf, 0xff, 0x3b, 0xce, 0x47, 0xe3, 0x00,
  0xec, 0xe1, 0xcb, 0xd3, 0x23, 0x1f, 0xee, 0x4e, 0x9f, 0xe2, 0xa1, 0x87,
  0x29, 0x4d, 0x35, 0xa2, 0x58, 0x34, 0x38, 0xa6, 0xf9, 0x9f, 0xe4, 0xa7,
  0x41, 0xed, 0x30, 0xa8, 0x31, 0x40, 0x09, 0x37, 0xd4, 0x17, 0x2f, 0xc1,
  0xaf, 0x0a, 0x44, 0x99, 0x18, 0xf5, 0xe5, 0x3d, 0xbd, 0xc3, 0x15, 0x1d,
  0xef, 0xde, 0xeb, 0x48, 0xd0, 0xc9, 0x28, 0x46, 0x17, 0xa4, 0xf4, 0xe0,
  0xae, 0xf9, 0xe7, 0xdb, 0xd1, 0xb9, 0x3f, 0x1d, 0xa4, 0xc8, 0xee, 0x18,
  0x98, 0xa7, 0x10, 0xa5, 0xb4, 0x3f, 0xea, 0xcb, 0x43, 0xf1, 0xea, 0x9e,
  0xa2, 0x91, 0x4d, 0x2b, 0x06, 0xf5, 0x2a, 0x98, 0x08, 0x21, 0xec, 0x32,
  0xf7, 0x2e, 0x0c, 0x16, 0x3e, 0xdc, 0xdf, 0x10, 0x8f, 0x36, 0x97, 0xcc,
  0xa0, 0x56, 0xc8, 0x3b, 0x04, 0x25, 0x46, 0xc3, 0xa2, 0x43, 0xe3, 0x82,
  0xd8, 0x1e, 0x9d, 0x1e, 0xa9, 0xd9, 0xc2, 0x9d, 0xea, 0xeb, 0x2e, 0xf0,
  0x28, 0xda, 0xef, 0x0f, 0xe0, 0x4b, 0x49, 0xd8, 0xed, 0x26, 0xce, 0xfe,
  0xd8, 0x93, 0xe3, 0xc9, 0xc7, 0x26, 0xb7, 0x08, 0xe7, 0xc7, 0xd1, 0x8d,
  0xc1, 0x49, 0xab, 0xac, 0x2d, 0x9a, 0x60, 0xfe, 0x03, 0x49, 0x2a, 0x01,
  0xac, 0x1d, 0xef, 0xad, 0xb0, 0x2c, 0x13, 0x92, 0x46, 0xc5, 0x50, 0x35,
  0xa4, 0x14, 0xbf, 0x2b, 0xb5, 0xe7, 0x04, 0x28, 0xed, 0x57, 0x45, 0xf1,
  0xd5, 0xa3, 0x4c, 0x0d, 0x01, 0x41, 0x23, 0x08, 0x1e, 0x40, 0x02, 0x31,
  0x24, 0x35, 0x3b, 0xf7, 0x31, 0xa4, 0xbc, 0x18, 0xbf, 0xd0, 0x54, 0x03,
  0x32, 0x3a, 0x20, 0xe9, 0xda, 0x0b, 0x28, 0xd4, 0xf4, 0x47, 0xa5, 0x95,
  0x2a, 0x24, 0xfe, 0x3b, 0x94, 0xdf, 0xc2, 0x2e, 0x19, 0xa2, 0x81, 0xed,
  0xe9, 0xd2, 0xc7, 0x2c, 0xb6, 0xfc, 0x08, 0x10, 0x3e, 0x26, 0x15, 0xc8,
  0x29, 0xb3, 0x77, 0x2a, 0x13, 0x2f, 0xf3, 0xf8, 0xbd, 0xcf, 0xf0, 0x19,
  0x14, 0xf2, 0x38, 0xc3, 0x24, 0x81, 0x64, 0x18, 0x06, 0xef, 0xfd, 0xed,
  0xb5, 0x05, 0xdb, 0x2e, 0xec, 0xde, 0x27, 0xf5, 0x01, 0x89, 0x10, 0x14,
  0x10, 0xdf, 0xfc, 0xf7, 0xd5, 0xe8, 0xfe, 0xf8, 0xeb, 0xf4, 0x22, 0xd0,
  0x1a, 0xd3, 0xcc, 0x24, 0x0d, 0xf0, 0x03, 0x06, 0xcd, 0xf7, 0xf6, 0xf9,
  0xe2, 0x12, 0x01, 0x09, 0x24, 0x0c, 0xae, 0x0b, 0x0d, 0x03, 0x07, 0xdd,
  0xe1, 0xfb, 0x24, 0xe8, 0xef, 0x01, 0xe1, 0x28, 0x2d, 0x3b, 0xbd, 0xf1,
  0xea, 0x11, 0x07, 0xe8, 0xef, 0x0d, 0x18, 0xdd, 0xd2, 0xf2, 0xd1, 0xfc,
  0x31, 0x39, 0xdb, 0xef, 0x0b, 0x25, 0xfe, 0x12, 0x02, 0x1e, 0x06, 0xd8,
  0x15, 0xdb, 0xba, 0xf2, 0xfe, 0x4b, 0xe2, 0xec, 0x05, 0x5d, 0x04, 0xf0,
  0x20, 0x17, 0x16, 0x07, 0xc9, 0xf2, 0xce, 0xf6, 0x04, 0x31, 0x0a, 0xf3,
  0x02, 0x28, 0xeb, 0x1e, 0x0c, 0x3a, 0x2a, 0x16, 0xf9, 0x02, 0xb5, 0xf7,
  0x09, 0x2f, 0xe1, 0xf3, 0x08, 0xfb, 0xf6, 0x21, 0x15, 0x46, 0xd3, 0xfc,
  0xf0, 0x08, 0xd2, 0x0e, 0xf5, 0x26, 0xea, 0xee, 0x06, 0xdc, 0x06, 0x20,
  0x11, 0x31, 0xfc, 0x2d, 0xe2, 0x16, 0xd3, 0xfb, 0x09, 0x31, 0xe5, 0xee,
  0xf0, 0xa6, 0xf1, 0x04, 0x0d, 0x34, 0xd0, 0x2a, 0x06, 0x23, 0xd8, 0x04,
  0xe5, 0x2c, 0xf2, 0xea, 0xf5, 0xc6, 0xfb, 0xfd, 0xfb, 0x3e, 0x01, 0x0d,
  0xcc, 0x1d, 0x04, 0x0d, 0xd4, 0x4c, 0xfa, 0xea, 0x02, 0xdd, 0x0d, 0xf6,
  0xfb, 0x3c, 0xf6, 0x02, 0xe9, 0x0f, 0xf8, 0x15, 0xff, 0x2f, 0x01, 0xd2,
  0xf0, 0xde, 0xee, 0xfd, 0x0f, 0x32, 0x18, 0xfe, 0xfe, 0x22, 0x0b, 0x0e,
  0xf8, 0x2d, 0xe6, 0xed, 0x0d, 0xc0, 0xf7, 0x2a, 0x03, 0x46, 0xff, 0xe2,
  0x1f, 0x19, 0x13, 0x0a, 0xe9, 0x0a, 0xf8, 0xf3, 0x0d, 0xa9, 0x01, 0x44,
  0x0b, 0x23, 0xe4, 0xfa, 0x4d, 0x1c, 0x2b, 0xe4, 0xe3, 0xef, 0x15, 0x07,
  0xf5, 0xad, 0xf6, 0x0e, 0x06, 0x0e, 0x14, 0x0b, 0x1b, 0xe8, 0x11, 0xf9,
  0x0f, 0xcc, 0x15, 0x0c, 0xf6, 0xfd, 0xf8, 0x39, 0x12, 0x21, 0xed, 0xf5,
  0x17, 0xee, 0x1f, 0xe8, 0xfd, 0xca, 0x12, 0x2a, 0xf6, 0xe6, 0xf3, 0x33,
  0xfc, 0xdb, 0x13, 0xf3, 0x11, 0x05, 0x30, 0xfe, 0x07, 0xc2, 0xfd, 0x22,
  0x06, 0xe6, 0xef, 0xee, 0xdf, 0xf4, 0xe1, 0xf5, 0xe3, 0xdf, 0x29, 0x0d,
  0x1b, 0xae, 0x06, 0xff, 0x0b, 0xef, 0x14, 0xee, 0xba, 0x10, 0x01, 0xbf,
  0xc6, 0xcf, 0xff, 0xdb, 0xf7, 0x94, 0x0c, 0xfa, 0x0e, 0xf8, 0x05, 0xe0,
  0xfa, 0x23, 0x12, 0x09, 0x2e, 0xfc, 0xd7, 0x1e, 0xe0, 0x93, 0x15, 0xfa,
  0xfc, 0xbc, 0xfd, 0xbe, 0x1d, 0x3d, 0x04, 0xea, 0x2e, 0x0b, 0x14, 0x15,
  0xe3, 0x97, 0x07, 0x00, 0xeb, 0xda, 0x04, 0xda, 0x35, 0x31, 0x0f, 0x02,
  0x18, 0x0a, 0x0b, 0x14, 0xef, 0xa8, 0x0c, 0x01, 0x14, 0xec, 0xf9, 0xd2,
  0x34, 0x32, 0xe9, 0xf7, 0x13, 0x02, 0x1b, 0x0e, 0xe2, 0xb7, 0x0a, 0x0f,
  0x14, 0x19, 0xed, 0xe5, 0x2a, 0x1c, 0xc7, 0xfe, 0xf1, 0xe9, 0x19, 0x06,
  0xe9, 0x87, 0x14, 0xfc, 0xf7, 0xf3, 0xf4, 0xee, 0x47, 0x0e, 0xef, 0xfa,
  0x0b, 0x26, 0x0f, 0xf8, 0xee, 0xa8, 0xeb, 0x03, 0x14, 0xfb, 0x17, 0x1e,
  0x31, 0x4d, 0x03, 0x07, 0x1e, 0x1c, 0x22, 0xe9, 0xf8, 0x94, 0x11, 0x0d,
  0xf2, 0x0a, 0x03, 0x2e, 0xf1, 0x51, 0xeb, 0xe9, 0x33, 0x01, 0x01, 0xdb,
  0xc6, 0xa2, 0x09, 0x0f, 0xf3, 0x1a, 0xf6, 0x23, 0x22, 0x7e, 0x0f, 0xf2,
  0x15, 0x16, 0xf5, 0xe3, 0xe5, 0x81, 0xef, 0x16, 0xf2, 0xe7, 0x09, 0x1f,
  0x16, 0x51, 0xdd, 0xd0, 0x04, 0x2d, 0xe1, 0xea, 0xf6, 0xa3, 0x14, 0x06,
  0x06, 0xfb, 0x08, 0xf8, 0x29, 0x59, 0xd2, 0xc0, 0x16, 0x08, 0xdd, 0xf9,
  0xcb, 0xb3, 0x1a, 0xff, 0xf5, 0xfb, 0x03, 0x0a, 0x23, 0x34, 0xf0, 0xf5,
  0x1f, 0xdf, 0xd9, 0xe6, 0xf3, 0xd4, 0xfe, 0xfd, 0xf2, 0x1e, 0x13, 0x0d,
  0x05, 0x44, 0x11, 0xea, 0x16, 0xfc, 0xf3, 0x07, 0x01, 0xb4, 0x18, 0x05,
  0xed, 0x2d, 0xef, 0x28, 0x26, 0x62, 0xf0, 0xf8, 0xf7, 0xe9, 0xf4, 0x0d,
  0xdf, 0xc9, 0xea, 0x13, 0x08, 0x11, 0x17, 0x3c, 0x2a, 0x4d, 0xb6, 0x00,
  0xe4, 0xd3, 0x00, 0xeb, 0xe5, 0xca, 0xf9, 0xfa, 0xfb, 0x14, 0x0e, 0x32,
  0x2d, 0x53, 0x05, 0xf2, 0x21, 0xd8, 0xe0, 0x07, 0xe8, 0xd2, 0xff, 0x19,
  0xed, 0x09, 0x0b, 0x21, 0x3d, 0x67, 0x96, 0x03, 0xd9, 0xf6, 0xf7, 0xf4,
  0xf6, 0xd0, 0xfe, 0x13, 0xfd, 0x22, 0x0c, 0x1c, 0x27, 0x73, 0xfb, 0x16,
  0xf8, 0xf6, 0xf6, 0x0e, 0xe0, 0xc7, 0xf8, 0x09, 0x03, 0x50, 0x1a, 0x3e,
  0x27, 0x3d, 0xd6, 0x21, 0xe5, 0xff, 0x06, 0xf0, 0x0a, 0xe8, 0x17, 0x10,
  0x0a, 0x2c, 0x11, 0x1b, 0x1b, 0x33, 0xf3, 0x2a, 0xe6, 0xff, 0xfe, 0xf6,
  0xfe, 0xef, 0x06, 0x0e, 0x0a, 0x05, 0xf5, 0x1c, 0x2e, 0x39, 0xfe, 0xfe,
  0xf2, 0x03, 0x0b, 0xff, 0xfd, 0xca, 0x15, 0x29, 0x0d, 0x1e, 0x04, 0x0c,
  0x08, 0x23, 0x01, 0x08, 0xe6, 0xe3, 0xf5, 0xe5, 0x18, 0xe3, 0x27, 0x1d,
  0xfd, 0x2d, 0xef, 0x1d, 0x11, 0x1a, 0xb2, 0x1b, 0xaa, 0xfc, 0x24, 0x01,
  0x18, 0x83, 0x31, 0x2b, 0x15, 0xbb, 0xf1, 0xcd, 0x03, 0x31, 0x1c, 0xf0,
  0x39, 0x29, 0xe9, 0x16, 0xe0, 0xf7, 0x1f, 0x02, 0xec, 0xce, 0x12, 0xdf,
  0xf9, 0x1a, 0xf4, 0xdb, 0xec, 0x0f, 0xf0, 0x06, 0xd2, 0xee, 0x1b, 0x18,
  0x0f, 0xbb, 0xfb, 0xf6, 0x0a, 0xe2, 0x19, 0xea, 0xe0, 0xf2, 0x08, 0x13,
  0xde, 0x02, 0x11, 0x16, 0x13, 0xb2, 0x11, 0xf7, 0xd8, 0xd8, 0x49, 0xfa,
  0xef, 0x04, 0xf8, 0xeb, 0x15, 0xf7, 0xd1, 0x13, 0x06, 0xd9, 0x0a, 0x0a,
  0xe9, 0xcb, 0x35, 0xef, 0xfb, 0xe9, 0xf0, 0xe8, 0xfd, 0x00, 0xfa, 0x06,
  0x04, 0xf9, 0x00, 0xeb, 0xf4, 0xf7, 0x1f, 0xef, 0x03, 0xff, 0x19, 0xd4,
  0x0e, 0x29, 0x03, 0x11, 0xf7, 0xfd, 0xff, 0xec, 0x12, 0xf4, 0x1f, 0xf6,
  0xe6, 0x03, 0x19, 0xe0, 0xe2, 0x04, 0x19, 0xf5, 0x13, 0x13, 0x01, 0xd6,
  0xe7, 0xc6, 0x1c, 0xf4, 0x11, 0xe9, 0xfb, 0xc3, 0x22, 0xe6, 0x1a, 0xe3,
  0xec, 0x58, 0x0d, 0x00, 0xd1, 0xa1, 0xdd, 0x08, 0x4c, 0xd8, 0xd2, 0xb2,
  0xf6, 0x02, 0x15, 0xff, 0xf7, 0x7f, 0xfd, 0xed, 0xb9, 0xfc, 0x22, 0x0d,
  0x33, 0xe0, 0xf6, 0xcc, 0x0b, 0xd0, 0x05, 0xea, 0x0b, 0x58, 0x01, 0x3c,
  0x14, 0x16, 0x21, 0xdd, 0x05, 0xf6, 0xfe, 0xf6, 0xf1, 0x24, 0xf7, 0xe5,
  0xfe, 0x4c, 0x0b, 0x4b, 0xe3, 0x16, 0x1d, 0xf1, 0xde, 0xf7, 0x1b, 0x0c,
  0x10, 0x17, 0x0d, 0x09, 0x07, 0xfd, 0xf3, 0xe8, 0xfd, 0x2a, 0x19, 0x15,
  0xc8, 0xe3, 0x09, 0x1a, 0x0f, 0xed, 0x0c, 0xf5, 0xfe, 0xfb, 0x0f, 0xeb,
  0x14, 0x1b, 0xbf, 0x14, 0x09, 0x0e, 0x18, 0x35, 0xff, 0xb8, 0x2f, 0x06,
  0x00, 0xdf, 0x06, 0xe7, 0x1c, 0x03, 0xe3, 0x47, 0x0a, 0xf4, 0x2a, 0x32,
  0xdb, 0xc3, 0x07, 0xde, 0x0f, 0xe0, 0xee, 0x21, 0x04, 0x04, 0xdf, 0x16,
  0x11, 0xfa, 0x1c, 0x26, 0x00, 0xfc, 0xff, 0xfc, 0xf1, 0xf0, 0x04, 0xf5,
  0x25, 0xfb, 0xec, 0x15, 0x01, 0xee, 0xf0, 0x0b, 0xed, 0x00, 0x09, 0xef,
  0xec, 0x30, 0x04, 0x23, 0xfa, 0xea, 0xda, 0x03, 0x06, 0xfd, 0xc9, 0xeb,
  0xf8, 0xfc, 0xf6, 0x15, 0x0a, 0x23, 0x13, 0xfc, 0xf2, 0xfc, 0x9d, 0xb9,
  0xfe, 0x14, 0xd8, 0xf1, 0xfc, 0x08, 0xf2, 0x15, 0x0a, 0xfb, 0xf7, 0x1f,
  0xea, 0xef, 0xdd, 0x04, 0xfd, 0xe2, 0xb7, 0xda, 0x02, 0x2c, 0xe0, 0x07,
  0x0e, 0xff, 0x06, 0xe0, 0xe5, 0xea, 0xdf, 0xfc, 0xd5, 0xce, 0xc8, 0xe0,
  0xe4, 0xf9, 0xfc, 0xfb, 0x0a, 0x14, 0x0e, 0x04, 0xfb, 0x0a, 0xe1, 0x06,
  0xfa, 0x1f, 0xed, 0xf7, 0x07, 0x02, 0xf6, 0x00, 0xfc, 0x02, 0xf1, 0x02,
  0xdd, 0xee, 0x12, 0x29, 0xe0, 0xf5, 0xf3, 0x1f, 0xe2, 0xfa, 0xe1, 0x08,
  0xfc, 0xfe, 0xfb, 0x1f, 0xf2, 0x16, 0x16, 0xf3, 0x0e, 0x06, 0xee, 0x13,
  0x0d, 0xd9, 0x03, 0x05, 0x0b, 0x2d, 0xf8, 0x18, 0xe3, 0x0d, 0xdd, 0xd6,
  0x30, 0xf8, 0xf3, 0x26, 0x0b, 0xc0, 0xf2, 0x0f, 0xf7, 0xde, 0xee, 0xce,
  0xe4, 0xff, 0x1e, 0xe9, 0x19, 0x01, 0x0b, 0x15, 0x16, 0xe9, 0xfd, 0x10,
  0x11, 0x0c, 0xf0, 0xf5, 0x24, 0xd2, 0xe3, 0xf6, 0x33, 0x17, 0xfd, 0xe7,
  0xfe, 0x19, 0xe2, 0x21, 0x02, 0x13, 0x06, 0x0a, 0xfd, 0x1d, 0x12, 0x03,
  0x2f, 0x06, 0xfc, 0xf8, 0x0a, 0x11, 0xd6, 0x05, 0xff, 0x03, 0x09, 0x09,
  0xec, 0xf8, 0x3b, 0xfc, 0x15, 0x13, 0x18, 0xf5, 0xf5, 0x2a, 0x1a, 0x2e,
  0x01, 0xdd, 0x0c, 0xdb, 0xf9, 0xcf, 0x11, 0xfe, 0x3a, 0x2b, 0x11, 0xf5,
  0x26, 0x02, 0xf5, 0x1f, 0x0c, 0xed, 0x0f, 0xfa, 0x1f, 0xc6, 0x0f, 0x0b,
  0x1c, 0x15, 0x23, 0xfa, 0x29, 0x12, 0xdf, 0x15, 0x0f, 0xe6, 0xfb, 0x05,
  0x16, 0xe8, 0xf0, 0x05, 0x01, 0x11, 0x19, 0xe9, 0x32, 0x2a, 0xe8, 0x26,
  0x06, 0xe0, 0x09, 0x0a, 0x0d, 0xe2, 0xe3, 0x03, 0xe7, 0x04, 0x12, 0xde,
  0x19, 0x37, 0x15, 0x0f, 0xfd, 0xbb, 0xfb, 0x1a, 0x19, 0xcb, 0xe1, 0x15,
  0xe9, 0x0c, 0xfc, 0xf6, 0x35, 0x2a, 0x07, 0x1d, 0xf0, 0x81, 0x01, 0x03,
  0x18, 0xd6, 0xf2, 0x14, 0xe2, 0x0a, 0xf1, 0xd9, 0x3d, 0x14, 0x02, 0x18,
  0x0a, 0xc0, 0xf3, 0x0a, 0xfd, 0xd0, 0x03, 0x20, 0xd1, 0xe3, 0x00, 0xda,
  0x33, 0x09, 0xfe, 0x01, 0xfb, 0xb7, 0x07, 0x3a, 0x04, 0xca, 0xff, 0x0f,
  0x07, 0xd9, 0xff, 0xe2, 0x33, 0x12, 0x00, 0xe7, 0x0c, 0xb4, 0xfe, 0x20,
  0x09, 0xd4, 0xd5, 0x0e, 0xe2, 0xcf, 0xd8, 0x04, 0x33, 0x26, 0x06, 0xee,
  0xf7, 0xdd, 0x02, 0x19, 0x04, 0xd8, 0xeb, 0x1d, 0x0c, 0xd2, 0xe8, 0x05,
  0x1d, 0x30, 0x10, 0xcc, 0x02, 0xd6, 0x03, 0x10, 0x20, 0xd6, 0xff, 0x0c,
  0xfc, 0xec, 0xe0, 0x03, 0x28, 0x38, 0xf4, 0xe2, 0x08, 0xef, 0xf9, 0x2d,
  0x1d, 0xd1, 0x04, 0xfc, 0xf7, 0xda, 0xdc, 0x0a, 0x2e, 0x24, 0x06, 0xc5,
  0xf3, 0xe4, 0xfb, 0x07, 0x25, 0xdd, 0xf4, 0xed, 0xdb, 0xda, 0xe8, 0x13,
  0x23, 0x2c, 0xe2, 0xe4, 0x07, 0x01, 0xfb, 0x1a, 0x1d, 0xf4, 0x39, 0xfb,
  0xd3, 0xe1, 0xe7, 0x19, 0x16, 0x28, 0x02, 0xfd, 0x11, 0xda, 0xf1, 0x07,
  0x27, 0xf5, 0xfb, 0x09, 0xf6, 0xea, 0xfa, 0xff, 0x0c, 0x2c, 0x06, 0xe4,
  0xf8, 0x05, 0xed, 0x25, 0x22, 0x0d, 0x08, 0xee, 0xe5, 0xf9, 0x0c, 0xf0,
  0xf2, 0x22, 0xf8, 0xec, 0x04, 0xe3, 0x12, 0x1e, 0x28, 0xfe, 0xf8, 0xc6,
  0x9b, 0x09, 0x11, 0xe1, 0xf0, 0xec, 0x2d, 0xfb, 0xf9, 0x07, 0x00, 0x0f,
  0xd4, 0xaa, 0xf1, 0x2f, 0x53, 0x04, 0xa9, 0xcb, 0x35, 0xda, 0x81, 0x2d,
  0xdd, 0xb8, 0x17, 0x14, 0x02, 0xf7, 0xf7, 0x33, 0x20, 0xe4, 0xc8, 0x2d,
  0xf9, 0x04, 0xe9, 0xce, 0xd9, 0xe1, 0x0e, 0x91, 0xbb, 0xd5, 0x41, 0xf0,
  0xba, 0xea, 0xec, 0xb4, 0xe6, 0xdd, 0xc0, 0xfd, 0xdd, 0xa1, 0xf3, 0xa7,
  0x51, 0x25, 0x1b, 0xea, 0xce, 0xec, 0xe6, 0xbf, 0xc8, 0xf7, 0xb3, 0xd8,
  0x11, 0xa8, 0xcd, 0x9b, 0x1f, 0x3d, 0x2a, 0xe3, 0xc7, 0xb1, 0xd0, 0x25,
  0xf8, 0xe2, 0xc4, 0x3e, 0xb2, 0x22, 0xe6, 0x10, 0x2b, 0xfb, 0xab, 0xcb,
  0xf1, 0xa1, 0xb3, 0xcf, 0xec, 0x09, 0xfa, 0x29, 0x1f, 0x12, 0xb6, 0x0b,
  0xbf, 0x3b, 0xbb, 0x2f, 0xfc, 0xe0, 0xcc, 0xb9, 0xa6, 0xa8, 0x28, 0x9b,
  0x20, 0x40, 0x1f, 0xb4, 0x07, 0x32, 0x0d, 0x10, 0xdd, 0xe6, 0xb6, 0xf6,
  0xbc, 0x26, 0xed, 0xd0, 0x50, 0x78, 0x27, 0xcf, 0x22, 0x14, 0x07, 0x9c,
  0x1c, 0xd3, 0xc2, 0xdc, 0x08, 0xa3, 0x38, 0x44, 0x51, 0xbd, 0x2e, 0xb0,
  0x0a, 0xea, 0x2a, 0xce, 0x0b, 0xfc, 0x37, 0xdf, 0x1b, 0xb3, 0xd0, 0xda,
  0x09, 0xb4, 0x1f, 0xb4, 0x05, 0xc7, 0xff, 0xce, 0x26, 0x1b, 0x9f, 0xaa,
  0x07, 0xc7, 0xe2, 0x82, 0xed, 0xcd, 0xd6, 0xf1, 0xd0, 0x31, 0x35, 0xca,
  0x42, 0xa0, 0xff, 0x35, 0x24, 0x8d, 0xd8, 0xa1, 0x38, 0x11, 0xcf, 0x22,
  0xf7, 0xbf, 0xed, 0x21, 0x0c, 0xcf, 0x18, 0xdb, 0xe7, 0xf6, 0x08, 0xfe,
  0x05, 0xe2, 0xc5, 0xac, 0xb3, 0x22, 0x36, 0xca, 0x20, 0xc4, 0x22, 0x26,
  0x2e, 0xf6, 0xbc, 0xe8, 0x0e, 0x51, 0x27, 0xc2, 0xb2, 0xba, 0x0b, 0xda,
  0xb3, 0x06, 0xff, 0xde, 0xea, 0xea, 0xf1, 0xee, 0xc7, 0x29, 0x17, 0x5f,
  0x1d, 0xe6, 0x10, 0xc7, 0xd2, 0xdf, 0xdb, 0x1d, 0x21, 0x2c, 0xc9, 0x1a,
  0x13, 0xb1, 0x39, 0xf1, 0xe0, 0x01, 0x46, 0xbe, 0x15, 0xd6, 0xc1, 0xe1,
  0x0d, 0xbb, 0xf7, 0xdc, 0x10, 0x8c, 0xdb, 0xe0, 0xe4, 0x18, 0x1d, 0x2c,
  0x20, 0xb4, 0xe8, 0xe2, 0x1b, 0xd6, 0x9f, 0x42, 0x21, 0xad, 0xee, 0x2d,
  0xe6, 0x01, 0xbc, 0x10, 0xbd, 0xe3, 0x0a, 0x2e, 0x4d, 0x08, 0xbc, 0x03,
  0xbb, 0x72, 0xfa, 0x99, 0x16, 0x29, 0x15, 0xb6, 0x2a, 0xb9, 0x9e, 0x09,
  0xec, 0x09, 0x17, 0xe9, 0x1d, 0x10, 0x35, 0xda, 0xc1, 0xa6, 0xce, 0xdb,
  0xfb, 0x15, 0xd8, 0xf6, 0xf4, 0xa8, 0xe2, 0xc0, 0x32, 0xfc, 0xf2, 0x0e,
  0xfb, 0xeb, 0x21, 0xdf, 0x93, 0xd9, 0xa0, 0xfe, 0x09, 0x40, 0xbb, 0xa7,
  0xbb, 0xdb, 0x50, 0xd0, 0xec, 0xeb, 0x23, 0xb4, 0x13, 0xc5, 0x96, 0x43,
  0xdb, 0x26, 0xc9, 0xb2, 0xdd, 0x0c, 0xe5, 0xda, 0xfc, 0x12, 0x04, 0x25,
  0xfa, 0xe0, 0xe9, 0xee, 0x2c, 0xce, 0x19, 0xf7, 0x09, 0x30, 0x05, 0x0f,
  0x0b, 0x20, 0xd8, 0x0b, 0x04, 0x05, 0xed, 0xe7, 0x25, 0xc8, 0x0f, 0xe2,
  0xf4, 0x1d, 0x07, 0x12, 0x1c, 0x20, 0xe7, 0x0e, 0x20, 0xef, 0xeb, 0x02,
  0x1d, 0xeb, 0x2a, 0xef, 0x0f, 0x19, 0xf3, 0x1e, 0x14, 0x31, 0xeb, 0xfe,
  0x17, 0xed, 0xf1, 0xe9, 0x3f, 0xeb, 0x23, 0xef, 0xf3, 0x1e, 0x04, 0xfd,
  0x25, 0x29, 0xd7, 0x13, 0xeb, 0xe7, 0xeb, 0xf0, 0x40, 0xfa, 0x1e, 0xd2,
  0x07, 0x2b, 0x01, 0xf1, 0x18, 0x10, 0xec, 0x05, 0xde, 0xce, 0xe2, 0xf1,
  0x34, 0xfc, 0x15, 0xe6, 0x0b, 0x03, 0x0e, 0x03, 0x1e, 0x1f, 0xfe, 0x03,
  0xfd, 0xef, 0xda, 0xf4, 0xef, 0x11, 0x00, 0xd6, 0x06, 0xe0, 0xfb, 0xf7,
  0x1a, 0x2b, 0x0b, 0xf9, 0xcf, 0xf9, 0x16, 0x04, 0xe3, 0x1f, 0xeb, 0xe6,
  0xfd, 0xa1, 0xfa, 0x2b, 0x22, 0xfa, 0xde, 0xf9, 0xfd, 0xf4, 0x27, 0x22,
  0xd5, 0x1c, 0x00, 0xc0, 0x02, 0x81, 0xf5, 0x2b, 0x24, 0xf9, 0xf8, 0xe7,
  0xda, 0x01, 0x21, 0x25, 0xc0, 0x20, 0x04, 0xeb, 0xf4, 0xbc, 0x0d, 0x20,
  0x13, 0xec, 0xf3, 0xd4, 0xe5, 0x0f, 0x22, 0x2b, 0xb9, 0x21, 0x12, 0xf9,
  0x0b, 0xea, 0x03, 0x28, 0xff, 0xd1, 0x12, 0xe4, 0xdd, 0x00, 0x20, 0x20,
  0xb6, 0x0e, 0xe7, 0x0d, 0x0f, 0xd8, 0xf5, 0x17, 0x03, 0xd8, 0x13, 0xd4,
  0xf3, 0x13, 0x2d, 0x19, 0x99, 0x1a, 0xe5, 0x12, 0x01, 0xc9, 0xfc, 0x18,
  0xee, 0x28, 0x30, 0xcd, 0x0a, 0x02, 0x26, 0xf4, 0xe2, 0x0b, 0xf8, 0x22,
  0xf9, 0xd4, 0x10, 0x11, 0xd2, 0x0b, 0x0e, 0xe1, 0xf2, 0x05, 0x0d, 0xe9,
  0xe6, 0x15, 0xe0, 0x27, 0xf7, 0xe1, 0x05, 0xf1, 0xf5, 0x03, 0xe3, 0xe9,
  0x05, 0xf8, 0xef, 0x00, 0xeb, 0x05, 0xdb, 0x17, 0xfe, 0xd7, 0x09, 0xda,
  0x02, 0xd0, 0xee, 0xf9, 0x29, 0xf8, 0xf0, 0xfa, 0xe5, 0x03, 0xdc, 0x19,
  0x0c, 0xf0, 0x05, 0xfc, 0xfa, 0xdd, 0x1c, 0x2b, 0xfe, 0x01, 0xff, 0x00,
  0x19, 0x00, 0xf8, 0x2e, 0x02, 0xf6, 0xfb, 0x05, 0xf8, 0xef, 0xf2, 0x23,
  0x2a, 0xea, 0xeb, 0xfa, 0xef, 0x01, 0x07, 0x0a, 0xf8, 0x3d, 0x02, 0xf5,
  0xbe, 0xac, 0xd8, 0x18, 0xf5, 0xeb, 0x09, 0xf5, 0x11, 0x33, 0x34, 0x0c,
  0x05, 0x3e, 0xfc, 0x05, 0xa0, 0xd1, 0xff, 0xff, 0x0f, 0x0f, 0x01, 0xe1,
  0x12, 0xfc, 0xf6, 0x12, 0xf9, 0x55, 0x02, 0x03, 0xc2, 0x0a, 0xea, 0xf2,
  0xeb, 0xf7, 0x00, 0xcf, 0x20, 0xf2, 0xfb, 0x0b, 0xf2, 0x42, 0xf7, 0xe8,
  0x00, 0xf7, 0xdd, 0x19, 0xfd, 0xfb, 0xf3, 0xdd, 0x2a, 0xfb, 0x0d, 0xf6,
  0xfc, 0x02, 0x05, 0xcc, 0xea, 0xcf, 0xd4, 0x14, 0x4b, 0x20, 0x54, 0xcc,
  0x0a, 0x72, 0xaf, 0x1a, 0xea, 0xc5, 0xe8, 0x4e, 0xfb, 0x9b, 0x9a, 0x1a,
  0xef, 0xe7, 0x49, 0xe5, 0x3d, 0x6d, 0xba, 0xfb, 0xf0, 0xad, 0x0c, 0x05,
  0x15, 0xc6, 0x04, 0x1a, 0xff, 0xcc, 0x06, 0x0d, 0x2e, 0x6a, 0xe2, 0xe8,
  0xf6, 0xd0, 0xfb, 0x1f, 0x1a, 0xb9, 0xcc, 0x0a, 0x15, 0xcc, 0xc9, 0x09,
  0x1e, 0x46, 0xdc, 0xb7, 0x17, 0xc1, 0xfa, 0x19, 0x2b, 0xe2, 0x8b, 0x0c,
  0xf3, 0xd0, 0xde, 0x11, 0x17, 0x2b, 0x01, 0xb0, 0xf7, 0xce, 0x14, 0x19,
  0x16, 0x14, 0xb3, 0x39, 0xec, 0xe3, 0xbb, 0x17, 0x1e, 0x23, 0x1e, 0x81,
  0xfb, 0x04, 0x0d, 0x25, 0x1b, 0x1a, 0xcf, 0x38, 0xe0, 0x00, 0xcc, 0x19,
  0x36, 0x1b, 0xff, 0x8c, 0x07, 0xff, 0x13, 0x1d, 0x34, 0xeb, 0xe9, 0x1a,
  0x34, 0x10, 0xf2, 0x03, 0x18, 0xf0, 0x1f, 0xaf, 0xfb, 0x05, 0x01, 0x00,
  0x37, 0xf2, 0xea, 0xd9, 0x0d, 0xc9, 0xd2, 0x18, 0xeb, 0xc6, 0x35, 0xdd,
  0xee, 0x08, 0x0b, 0x1a, 0x44, 0x87, 0xfb, 0xc5, 0x06, 0xe2, 0xeb, 0x20,
  0xc9, 0xd0, 0x28, 0xd5, 0x09, 0x02, 0xef, 0x2d, 0x4b, 0x28, 0x08, 0xde,
  0x1b, 0x03, 0x1c, 0x22, 0xac, 0xfb, 0xfb, 0xef, 0x09, 0x23, 0x01, 0x05,
  0x4d, 0x4c, 0x55, 0xe7, 0x40, 0xdb, 0x48, 0xf0, 0xca, 0xdb, 0xf7, 0xde,
  0xff, 0x0d, 0x00, 0x17, 0x1f, 0x42, 0xf8, 0xc5, 0x2f, 0xea, 0x20, 0xd0,
  0xcf, 0xe2, 0xdc, 0x03, 0xfe, 0x0f, 0xe8, 0x1a, 0x21, 0x15, 0xfc, 0xab,
  0x33, 0xee, 0x19, 0xe0, 0x06, 0xf1, 0xcf, 0x33, 0xef, 0xe7, 0x12, 0x2e,
  0x34, 0x0f, 0x06, 0xc6, 0x23, 0xed, 0x2c, 0xc9, 0x31, 0xeb, 0xc3, 0xfc,
  0x04, 0xf7, 0x0d, 0x0e, 0xff, 0xf8, 0x4f, 0xe4, 0xfd, 0x17, 0x11, 0xbc,
  0x14, 0xf0, 0xdf, 0x06, 0x02, 0xf8, 0x0d, 0xe3, 0xf6, 0xf4, 0xda, 0xdf,
  0x38, 0x1f, 0x15, 0xd5, 0x58, 0xfe, 0xe8, 0x0f, 0xef, 0x21, 0x17, 0xd3,
  0x1b, 0x00, 0xc2, 0x2b, 0x4d, 0xff, 0xfb, 0xff, 0x1f, 0xee, 0xf7, 0x23,
  0x06, 0x41, 0xf5, 0xae, 0x0c, 0x13, 0xd1, 0x07, 0x01, 0x1c, 0xef, 0xe7,
  0xf7, 0xf4, 0xf8, 0x24, 0x09, 0x3e, 0xf6, 0xd5, 0xdb, 0x0c, 0xb4, 0xfe,
  0xab, 0x3f, 0xfe, 0x20, 0xdb, 0xd5, 0x25, 0x29, 0x10, 0x0f, 0x11, 0xca,
  0xe0, 0xc2, 0x96, 0x09, 0xcb, 0x02, 0xfd, 0x0d, 0x11, 0xf0, 0x0a, 0x26,
  0x09, 0xed, 0xfd, 0xd2, 0x8f, 0x27, 0xd6, 0x32, 0xf2, 0x0b, 0x11, 0xde,
  0x32, 0xa1, 0xd6, 0x0a, 0x0f, 0xff, 0xfb, 0xd5, 0xb9, 0xfb, 0x53, 0xe4,
  0xe6, 0xf8, 0x01, 0xd8, 0xff, 0xc9, 0xfa, 0x27, 0xf7, 0x0c, 0x04, 0x87,
  0x04, 0xee, 0xdb, 0xdb, 0xfa, 0xf1, 0xf0, 0xee, 0xdf, 0xf1, 0x0d, 0x00,
  0xfa, 0x92, 0xf9, 0xe3, 0x08, 0x2a, 0x47, 0xdd, 0x0b, 0x2f, 0xe6, 0x0c,
  0xe7, 0xd3, 0x06, 0x09, 0xff, 0xbb, 0xeb, 0xb4, 0xf5, 0xef, 0x11, 0x0f,
  0x04, 0xf5, 0x07, 0x04, 0xfd, 0xf0, 0x2c, 0xf7, 0x01, 0xc6, 0xee, 0xdb,
  0xe5, 0xbb, 0x48, 0x0e, 0xeb, 0xee, 0xfe, 0x0f, 0xc7, 0xd4, 0x0c, 0x0a,
  0x09, 0xc6, 0x07, 0xcf, 0xf2, 0xcc, 0x55, 0x14, 0x24, 0xf8, 0xee, 0x03,
  0xeb, 0xb2, 0xf1, 0x1d, 0x0d, 0x1a, 0x01, 0x09, 0x1e, 0xa0, 0xfa, 0x24,
  0xfd, 0x05, 0x0e, 0x0b, 0xe0, 0xe4, 0x13, 0x1a, 0x0d, 0xf8, 0x0d, 0x2a,
  0xf8, 0xcf, 0xe5, 0xff, 0x07, 0xf9, 0x14, 0xf8, 0xd5, 0xd7, 0x08, 0x11,
  0xfc, 0xcf, 0x01, 0x0c, 0x0a, 0xa6, 0xfa, 0xe1, 0x0e, 0xfd, 0x1a, 0xd9,
  0xde, 0xe1, 0xfe, 0x00, 0xfd, 0xee, 0x08, 0x31, 0xe8, 0xd6, 0x00, 0xf8,
  0x27, 0x11, 0x04, 0xee, 0xff, 0xf2, 0x1b, 0x0e, 0x0c, 0xc8, 0x09, 0x2b,
  0x00, 0x09, 0xd1, 0x18, 0x42, 0x02, 0xfc, 0xec, 0x0f, 0xfa, 0xcc, 0x03,
  0x13, 0x0d, 0x12, 0x13, 0xf3, 0xe6, 0xc5, 0x1b, 0x0e, 0xf8, 0xe3, 0xf6,
  0x2c, 0xee, 0xf5, 0xf3, 0x14, 0x23, 0xf5, 0x2a, 0xe2, 0xef, 0xda, 0x10,
  0x1c, 0x05, 0xe8, 0xe4, 0x53, 0xdc, 0xf5, 0xdd, 0xf3, 0x3f, 0x07, 0x0a,
  0xec, 0x0f, 0xc4, 0x24, 0x20, 0xeb, 0x10, 0xf1, 0x59, 0xed, 0xe9, 0xf9,
  0x0e, 0x7f, 0xf6, 0x28, 0xed, 0xfb, 0xb8, 0x1d, 0x00, 0xde, 0xf5, 0xf1,
  0x4e, 0xf2, 0xfb, 0xeb, 0xf2, 0x2e, 0xeb, 0xd0, 0x0d, 0x05, 0xc4, 0x2f,
  0xf7, 0xd9, 0xcd, 0x03, 0x68, 0xfd, 0x07, 0xe0, 0xee, 0x26, 0xf7, 0xec,
  0xfe, 0xff, 0xcf, 0x3b, 0x04, 0xc5, 0xcf, 0x09, 0x65, 0xe5, 0x0a, 0xd5,
  0xf9, 0x63, 0x09, 0x11, 0xee, 0x07, 0xc0, 0x1e, 0xf6, 0xec, 0xee, 0x05,
  0x55, 0x04, 0x2e, 0xd6, 0xf8, 0x68, 0x00, 0x0d, 0x16, 0x0e, 0xe7, 0x02,
  0xf9, 0xce, 0x06, 0x18, 0x52, 0xfa, 0x22, 0xcf, 0xf1, 0x54, 0x0b, 0x2d,
  0x04, 0x21, 0x06, 0x18, 0x0c, 0x01, 0x12, 0x22, 0x0e, 0xe2, 0x0f, 0xd1,
  0x0b, 0x2b, 0x08, 0xff, 0xee, 0x1f, 0xf1, 0xf8, 0xee, 0x18, 0x0e, 0x1e,
  0x08, 0x15, 0xff, 0xcf, 0x07, 0x25, 0x10, 0x26, 0xec, 0x2b, 0xfb, 0xf1,
  0x06, 0x02, 0x33, 0x10, 0xf5, 0x0f, 0x1e, 0xef, 0xf4, 0x10, 0xfe, 0x17,
  0xfe, 0x2d, 0x02, 0xd8, 0xe5, 0xdf, 0x2c, 0x0b, 0xe7, 0x11, 0xfa, 0xf5,
  0xf0, 0x09, 0xf5, 0xf3, 0xf6, 0x24, 0x48, 0xad, 0xb1, 0x23, 0x27, 0x2d,
  0xc7, 0xf1, 0x1a, 0xe7, 0x04, 0xd7, 0x0f, 0x41, 0xf4, 0xe7, 0xb0, 0xb9,
  0x23, 0x01, 0x1c, 0xd7, 0xd3, 0x47, 0xee, 0xe7, 0x0a, 0xed, 0x0c, 0xd1,
  0x12, 0x10, 0x07, 0xcb, 0x2f, 0x11, 0xf2, 0x12, 0xd5, 0x22, 0xc7, 0x01,
  0xef, 0xf4, 0x0f, 0x33, 0x13, 0x61, 0xd3, 0xe1, 0x27, 0x0c, 0xea, 0xf8,
  0xf6, 0x0f, 0xc2, 0x1f, 0x01, 0xcb, 0xfd, 0x1e, 0x11, 0x32, 0xf2, 0x0f,
  0x31, 0x0a, 0xf6, 0xf0, 0xc9, 0x14, 0xd7, 0x1b, 0x0a, 0xfa, 0x0b, 0x67,
  0x1f, 0x3a, 0xe4, 0xf1, 0x14, 0x20, 0xc1, 0x24, 0xd3, 0x0a, 0xb1, 0x16,
  0x05, 0xd9, 0x1c, 0x3e, 0xf7, 0x2b, 0xf5, 0x07, 0x24, 0xea, 0xf6, 0x0c,
  0x07, 0x15, 0xba, 0x16, 0x1a, 0x9a, 0x11, 0x68, 0x20, 0x3a, 0xed, 0x09,
  0x05, 0xe2, 0xe6, 0x0e, 0xd0, 0x0e, 0x0a, 0x1b, 0xf9, 0x81, 0x0e, 0x6a,
  0x07, 0x4f, 0xb5, 0x1e, 0x39, 0xd1, 0xff, 0x24, 0xd5, 0x1d, 0xd5, 0x0c,
  0x0b, 0xff, 0x21, 0x60, 0x35, 0x69, 0x0b, 0x1b, 0x0c, 0xc2, 0x11, 0x03,
  0x04, 0x0c, 0xf2, 0x16, 0xf5, 0x29, 0x1b, 0x41, 0x11, 0x5d, 0xd7, 0x1a,
  0x13, 0xbc, 0xfc, 0xef, 0xf3, 0x26, 0xff, 0xe8, 0x14, 0xfe, 0xf1, 0x54,
  0x10, 0x3a, 0xd7, 0x45, 0x15, 0xe8, 0x16, 0x10, 0xd6, 0x05, 0x08, 0x0d,
  0xf5, 0x6c, 0x01, 0x72, 0x39, 0xec, 0xfe, 0x4b, 0x07, 0xeb, 0x1e, 0x0b,
  0xe7, 0x12, 0xfb, 0x00, 0x04, 0x20, 0x15, 0x5d, 0x4d, 0xe8, 0xfc, 0x2e,
  0x07, 0x08, 0x22, 0xf6, 0xec, 0xde, 0x55, 0xf0, 0x16, 0x3c, 0x1d, 0x30,
  0x37, 0xc6, 0xb8, 0xe6, 0xf8, 0xf2, 0x1e, 0x11, 0xdd, 0xed, 0x44, 0x04,
  0xfc, 0x2f, 0xf0, 0x13, 0x19, 0xe7, 0x88, 0x00, 0xd1, 0xe6, 0x15, 0xe1,
  0xd9, 0x0a, 0x14, 0x0b, 0x13, 0x4c, 0x1c, 0x21, 0x1b, 0xd6, 0xdd, 0xff,
  0xc4, 0xd8, 0xdd, 0xfc, 0xfd, 0xfb, 0x0c, 0xf6, 0xf2, 0x45, 0xea, 0xa6,
  0xee, 0xc6, 0xe4, 0xdf, 0xff, 0x06, 0xeb, 0xf1, 0x05, 0x00, 0x1a, 0x0c,
  0xf4, 0x40, 0x14, 0xaf, 0xfe, 0xbd, 0xe5, 0xd8, 0xb3, 0x05, 0xa5, 0xe0,
  0x18, 0xbf, 0x22, 0x03, 0xeb, 0x3b, 0x14, 0xa8, 0xda, 0x02, 0xbb, 0xc5,
  0xb4, 0x02, 0xad, 0xc5, 0xe9, 0xce, 0x04, 0x06, 0xea, 0x07, 0xfb, 0xc2,
  0xea, 0xe5, 0x45, 0xe0, 0xb1, 0xef, 0xd2, 0xf9, 0x05, 0x0f, 0xd4, 0x0c,
  0x0f, 0xf6, 0xf0, 0xb9, 0x9f, 0xc6, 0x11, 0xcb, 0xb2, 0x11, 0xe7, 0xf6,
  0xf4, 0x4c, 0xf4, 0x0f, 0x10, 0xc6, 0x01, 0xfd, 0xd1, 0xf7, 0xd7, 0xcc,
  0xcc, 0xed, 0x0e, 0x1d, 0xee, 0x30, 0xc9, 0xf4, 0x06, 0xcd, 0x05, 0xe1,
  0x0e, 0x05, 0x27, 0xad, 0xc9, 0x0b, 0x29, 0x4f, 0xe3, 0x5b, 0xdc, 0xf3,
  0x03, 0xca, 0x14, 0xf2, 0xed, 0x0b, 0xfa, 0xce, 0xe9, 0x02, 0xf5, 0x02,
  0x3a, 0xa1, 0x40, 0xe3, 0x07, 0xd5, 0xfa, 0xec, 0xfd, 0xfc, 0x01, 0x24,
  0x01, 0x17, 0xf0, 0xe3, 0x26, 0xc4, 0x35, 0xf5, 0x04, 0xd2, 0x00, 0x01,
  0xd9, 0xd8, 0xd9, 0x0f, 0xd5, 0xf6, 0x10, 0xf1, 0x3d, 0xb9, 0x03, 0xff,
  0x11, 0xf1, 0xf6, 0x03, 0xcc, 0xd6, 0xea, 0xf1, 0xda, 0xfd, 0xf3, 0xdc,
  0x0e, 0xb3, 0x06, 0x07, 0xf1, 0x01, 0xef, 0xd1, 0xc7, 0xe2, 0xec, 0x04,
  0xcd, 0xdd, 0xe7, 0xdf, 0xf3, 0xb8, 0x04, 0x0c, 0xfc, 0x34, 0xef, 0xea,
  0xf3, 0xca, 0xed, 0xd0, 0x03, 0xd8, 0x13, 0xe4, 0xdf, 0x03, 0xe5, 0x19,
  0x0f, 0x14, 0x05, 0xfb, 0xfb, 0x81, 0xde, 0xf9, 0xf8, 0x1d, 0x29, 0xe6,
  0xc3, 0x18, 0xf1, 0x17, 0x00, 0x2a, 0x08, 0x23, 0x0d, 0xc5, 0x17, 0xcf,
  0xf9, 0x1d, 0x26, 0x2c, 0xb0, 0x31, 0xec, 0x2b, 0x05, 0x18, 0xfd, 0x28,
  0x1e, 0xd4, 0x4d, 0xf2, 0xee, 0x1f, 0x1d, 0x12, 0xa2, 0x3d, 0x1c, 0x14,
  0xf6, 0x0c, 0x12, 0x37, 0x0f, 0xd0, 0x06, 0xf7, 0xe7, 0x0c, 0x22, 0x14,
  0xad, 0x31, 0x02, 0xfc, 0x05, 0xf8, 0xfb, 0x1b, 0x22, 0xab, 0x1e, 0x00,
  0x19, 0x0a, 0x09, 0x13, 0xa2, 0x2e, 0xe7, 0x13, 0xee, 0xf1, 0x19, 0xdb,
  0x10, 0xab, 0x23, 0x18, 0x09, 0xfd, 0x2c, 0x19, 0x9f, 0x12, 0xe7, 0xce,
  0xed, 0x28, 0x09, 0x17, 0x06, 0xd7, 0x3b, 0x09, 0x17, 0xfa, 0xf6, 0x2e,
  0xbd, 0x27, 0xfa, 0xc9, 0xf9, 0x25, 0xf9, 0x12, 0x00, 0xea, 0x15, 0x03,
  0x28, 0x0f, 0xf5, 0x1f, 0xc3, 0x26, 0xeb, 0xae, 0xf7, 0x15, 0x13, 0xf6,
  0x15, 0x0d, 0x00, 0x10, 0x07, 0xcb, 0xdd, 0x1c, 0xcd, 0x40, 0x0e, 0xb9,
  0xf7, 0x0e, 0x06, 0xdb, 0xfb, 0x22, 0xd9, 0x13, 0x07, 0xe4, 0xa9, 0x01,
  0xd1, 0x15, 0x14, 0x1a, 0xef, 0x20, 0x09, 0xcf, 0x1f, 0x3a, 0xeb, 0x09,
  0x1e, 0xb4, 0xc4, 0xdc, 0x12, 0xe6, 0x2e, 0xf2, 0xf4, 0x19, 0x03, 0x1f,
  0x3f, 0x24, 0xd6, 0x26, 0x0b, 0xca, 0xdd, 0xde, 0x2f, 0xe1, 0x32, 0xf0,
  0xff, 0x1c, 0xed, 0x31, 0x19, 0x3c, 0xd7, 0x1a, 0x23, 0xf0, 0xe0, 0xfd,
  0x52, 0xe2, 0x0a, 0x18, 0x05, 0x28, 0x01, 0x0f, 0xfb, 0x17, 0xb9, 0x16,
  0x03, 0xef, 0xfa, 0xfa, 0x31, 0xeb, 0x22, 0x1f, 0x0a, 0x0e, 0xf2, 0xf6,
  0xff, 0x11, 0xe4, 0x0e, 0xed, 0xee, 0x19, 0x03, 0x41, 0xe9, 0x2e, 0x29,
  0xfd, 0xfb, 0xee, 0x11, 0xdc, 0xfe, 0xdf, 0xeb, 0xd5, 0xfd, 0x07, 0xdf,
  0x19, 0xe2, 0xf5, 0x26, 0xf8, 0x1c, 0x11, 0xda, 0xc1, 0xfe, 0xff, 0x2a,
  0xe1, 0x22, 0x0d, 0x04, 0x21, 0xc2, 0x0e, 0x17, 0x04, 0xff, 0xf3, 0xcb,
  0x1c, 0xbb, 0xfc, 0x3d, 0x13, 0xfd, 0x43, 0xff, 0x3a, 0xb8, 0x23, 0x0c,
  0x01, 0x21, 0x0b, 0xd5, 0x1c, 0xd3, 0xe3, 0x2b, 0x0c, 0xf3, 0x29, 0x13,
  0xf8, 0xf5, 0x35, 0x17, 0xf5, 0x31, 0x08, 0x1c, 0x07, 0xc0, 0xc1, 0x1d,
  0x2a, 0xe8, 0x14, 0xff, 0x11, 0xee, 0x24, 0x13, 0xf6, 0x0c, 0x11, 0xd4,
  0x1d, 0xc5, 0xf0, 0x1c, 0x0e, 0xd5, 0x2a, 0xf3, 0xf0, 0xf2, 0x1d, 0x0d,
  0xfc, 0x0d, 0xf8, 0x05, 0x08, 0xc1, 0xf7, 0x2e, 0x2c, 0xcd, 0x26, 0xe8,
  0xfe, 0xfc, 0x26, 0xff, 0xfb, 0x1f, 0x10, 0x1c, 0x17, 0xd4, 0x09, 0x09,
  0x15, 0xd7, 0x2b, 0xfc, 0xfb, 0x0f, 0x15, 0xe0, 0x09, 0x6d, 0xfd, 0xfe,
  0x11, 0xb3, 0xec, 0xf6, 0x19, 0xd9, 0xf0, 0x04, 0x1d, 0x16, 0x10, 0xe3,
  0x09, 0x68, 0x14, 0xe5, 0x14, 0xeb, 0xf1, 0x19, 0xfc, 0xd1, 0xfe, 0x16,
  0x08, 0x00, 0x03, 0xd7, 0xf2, 0x57, 0xfc, 0xf8, 0x12, 0xd9, 0xeb, 0x03,
  0xe2, 0x00, 0x00, 0x0e, 0xe9, 0x0f, 0x14, 0xbb, 0xf9, 0x3d, 0x08, 0x04,
  0x1a, 0x04, 0xd2, 0x0b, 0xf5, 0xdd, 0xc4, 0x1b, 0xce, 0xfd, 0x1e, 0xc1,
  0xf5, 0x70, 0x11, 0x0f, 0x1c, 0xe0, 0xf8, 0xf8, 0xd5, 0xb0, 0xa9, 0xff,
  0xf3, 0x0d, 0x13, 0xf8, 0xf4, 0x25, 0xf3, 0x0f, 0x22, 0x0a, 0xd2, 0xd8,
  0xef, 0xca, 0xc5, 0xf2, 0x04, 0x05, 0x15, 0xd0, 0x06, 0x24, 0x04, 0xc8,
  0x0f, 0x11, 0xdd, 0xce, 0xf3, 0xcc, 0x99, 0xc7, 0x01, 0xeb, 0xf3, 0xea,
  0x10, 0x1b, 0x0f, 0xd8, 0xce, 0x16, 0xc0, 0xd7, 0xf1, 0xeb, 0x9e, 0xb3,
  0x0e, 0xd7, 0xfb, 0xf6, 0x07, 0x46, 0xfa, 0xff, 0xd0, 0xf5, 0xa5, 0xf9,
  0xda, 0x05, 0xb6, 0xbf, 0x1e, 0xe2, 0xfa, 0xfc, 0xf0, 0x20, 0xec, 0xcb,
  0xf8, 0xe4, 0x1c, 0xeb, 0x01, 0x08, 0xcf, 0xd5, 0x12, 0xf8, 0xfa, 0xf7,
  0xf6, 0x0a, 0xf7, 0xef, 0x06, 0x24, 0x51, 0xdb, 0x0f, 0x0e, 0xf6, 0x0f,
  0x04, 0x15, 0xf7, 0x0b, 0x12, 0xc6, 0xee, 0x00, 0xeb, 0x42, 0x38, 0xfa,
  0x0c, 0x2b, 0x39, 0x39, 0x1f, 0x13, 0xba, 0x05, 0xee, 0xda, 0xf9, 0xb1,
  0xe9, 0x19, 0x5e, 0x1f, 0xf4, 0x31, 0x41, 0x27, 0x05, 0xe2, 0xcc, 0x09,
  0xee, 0xfc, 0x13, 0xc6, 0xf5, 0x21, 0xf8, 0xf0, 0xfa, 0x39, 0x5b, 0x0d,
  0x20, 0xdb, 0xb9, 0x19, 0x11, 0xfe, 0x0b, 0xf8, 0x11, 0x01, 0x02, 0xfa,
  0x0e, 0x3b, 0x4f, 0x08, 0xdc, 0xe5, 0xd3, 0x1a, 0xed, 0xb9, 0x07, 0xee,
  0xe6, 0x44, 0x03, 0xee, 0xeb, 0x4c, 0x56, 0xfd, 0xfc, 0xfc, 0xb4, 0x31,
  0x04, 0x85, 0x0e, 0x3e, 0xf7, 0x03, 0xde, 0xc9, 0x1f, 0x4c, 0x43, 0x00,
  0xd3, 0xf9, 0xbe, 0x20, 0xf7, 0x81, 0x11, 0x32, 0x23, 0x65, 0xbb, 0x15,
  0xe5, 0x32, 0x16, 0xbb, 0x0b, 0xc3, 0x58, 0x0c, 0x14, 0xd3, 0xe4, 0xe6,
  0xf4, 0x3d, 0x27, 0x0b, 0x03, 0x4b, 0x15, 0xa5, 0x1e, 0xb9, 0x6d, 0x2a,
  0xfb, 0xd9, 0x18, 0xb6, 0x15, 0x54, 0xe0, 0x07, 0x22, 0x32, 0x05, 0xa9,
  0x3a, 0xd4, 0x76, 0x20, 0x0a, 0x9c, 0x12, 0x87, 0x12, 0x3c, 0xce, 0x11,
  0x15, 0x2c, 0x34, 0xff, 0x38, 0x9a, 0x5d, 0x11, 0x1c, 0xe7, 0x1c, 0xc3,
  0xfe, 0x4b, 0xe1, 0x3b, 0x0f, 0x2d, 0x19, 0x19, 0x2d, 0xa7, 0x37, 0xe9,
  0x01, 0xc3, 0x03, 0x81, 0xdc, 0x4f, 0xdc, 0x04, 0xf6, 0x1d, 0x12, 0x40,
  0x49, 0xcb, 0x02, 0x12, 0xf1, 0xd3, 0x15, 0x99, 0x07, 0x47, 0xd0, 0xf8,
  0x21, 0x1e, 0x18, 0x71, 0x52, 0x06, 0x25, 0xc0, 0xe2, 0xf0, 0x15, 0x86,
  0x10, 0x34, 0x27, 0xeb, 0x5d, 0x39, 0x04, 0x38, 0x40, 0x13, 0x4a, 0xd4,
  0x13, 0xe8, 0x25, 0x94, 0x02, 0x37, 0x26, 0x14, 0x71, 0x08, 0xf5, 0x5e,
  0x12, 0x0c, 0x1a, 0xb4, 0xec, 0xf3, 0xf0, 0x95, 0x25, 0x3b, 0x22, 0xfd,
  0x37, 0x3d, 0xc3, 0x14, 0x3b, 0xeb, 0x15, 0xaa, 0x0c, 0x4e, 0x0f, 0xda,
  0xeb, 0xf8, 0x16, 0x0e, 0x1f, 0xe8, 0xed, 0x3a, 0x4a, 0xfb, 0xed, 0xbd,
  0x12, 0x42, 0xf7, 0x07, 0xd6, 0x11, 0x03, 0x0d, 0x4f, 0xca, 0xea, 0x1f,
  0x21, 0x1b, 0xf6, 0xc8, 0xf5, 0x40, 0xe7, 0x0d, 0xd2, 0xff, 0x61, 0x21,
  0x44, 0xff, 0xf1, 0x23, 0xeb, 0x03, 0xc8, 0x0d, 0x14, 0x48, 0xf7, 0x09,
  0xea, 0xe9, 0x4d, 0xc8, 0x56, 0xdf, 0xb9, 0x01, 0x11, 0x05, 0xd0, 0xfe,
  0x20, 0x38, 0xf2, 0x31, 0xc3, 0xcb, 0x5b, 0xce, 0x24, 0xa1, 0xc9, 0x14,
  0x3f, 0x15, 0xb7, 0xd3, 0x1d, 0x2a, 0xe8, 0x2d, 0x06, 0xa9, 0xf7, 0xf1,
  0x04, 0xce, 0xc6, 0x00, 0x37, 0x1c, 0xe3, 0xc6, 0xe3, 0x1e, 0x19, 0x1e,
  0xfd, 0xc9, 0xea, 0xfa, 0x2f, 0xed, 0x0c, 0xeb, 0x5d, 0xee, 0xd1, 0xe1,
  0x1e, 0x2e, 0xf4, 0x0b, 0xe9, 0xd1, 0xc9, 0x0f, 0x46, 0xc7, 0xe3, 0x9f,
  0x45, 0x04, 0xb2, 0x14, 0xe6, 0x54, 0x15, 0x2c, 0xdc, 0xad, 0x09, 0x27,
  0x00, 0xf5, 0xf5, 0x16, 0x2f, 0x18, 0xd9, 0x0d, 0x0c, 0x00, 0xf4, 0x21,
  0xd6, 0xc9, 0xd9, 0xe0, 0xe6, 0xf2, 0x2a, 0xd7, 0x31, 0x0a, 0xa0, 0x19,
  0xe2, 0x25, 0xfd, 0x2b, 0xd4, 0xf8, 0xe8, 0x17, 0x2f, 0x3c, 0xf9, 0x93,
  0x20, 0xff, 0xd4, 0x2b, 0xfb, 0x1a, 0x10, 0xf4, 0x27, 0x90, 0xb3, 0x22,
  0x07, 0x75, 0x16, 0xd3, 0x3b, 0x27, 0xbe, 0x09, 0xf4, 0x16, 0xfd, 0x30,
  0xe4, 0xe0, 0x2e, 0xf4, 0xb8, 0x2c, 0x02, 0xa6, 0x29, 0x15, 0x8a, 0x35,
  0x08, 0x02, 0xf8, 0x22, 0x40, 0xe5, 0x02, 0xc7, 0xcb, 0x0f, 0x25, 0xcc,
  0xaf, 0xfc, 0xe8, 0x49, 0xfe, 0x0e, 0xf4, 0x5a, 0x38, 0xd4, 0x29, 0xbb,
  0xdc, 0x31, 0x31, 0x09, 0xc9, 0x13, 0xef, 0x2f, 0x07, 0xa7, 0xfd, 0xf6,
  0x32, 0x8a, 0x4c, 0xde, 0xd4, 0x25, 0x09, 0x0c, 0xc2, 0x35, 0x37, 0x48,
  0xf4, 0xac, 0x02, 0xe0, 0x23, 0xcb, 0x2a, 0xda, 0xdd, 0x21, 0x28, 0x27,
  0xd0, 0x1a, 0x41, 0x41, 0xf8, 0xd0, 0x19, 0xcb, 0x2e, 0xed, 0x4a, 0xef,
  0xdc, 0x19, 0x0e, 0x03, 0xba, 0x35, 0x44, 0x10, 0xeb, 0xbd, 0x16, 0xe8,
  0x37, 0xee, 0x4f, 0xfb, 0xd7, 0x18, 0x1a, 0xf4, 0xe7, 0x49, 0xf4, 0x10,
  0xfe, 0x94, 0x08, 0xb5, 0x20, 0xf3, 0x37, 0x0a, 0xe8, 0x19, 0xec, 0x0c,
  0xe7, 0x51, 0x2f, 0xf4, 0x14, 0xab, 0x0f, 0x8c, 0x13, 0x09, 0x20, 0x06,
  0x1c, 0x0f, 0xf2, 0xde, 0xff, 0xf5, 0x12, 0xeb, 0xf2, 0x81, 0xf0, 0xc4,
  0x34, 0xd8, 0x15, 0x0c, 0x09, 0x1c, 0xbf, 0xf4, 0xe1, 0x04, 0x00, 0xbd,
  0xeb, 0xb9, 0x0c, 0xba, 0x1e, 0x2d, 0xe4, 0x0c, 0x14, 0x0a, 0xb1, 0x04,
  0xfd, 0xc7, 0x1d, 0xc0, 0xf3, 0xd2, 0xfa, 0xeb, 0x32, 0xef, 0x28, 0xff,
  0x19, 0x16, 0xaf, 0x0e, 0x0e, 0x02, 0x27, 0xaf, 0x08, 0xec, 0xe7, 0xc7,
  0x11, 0xe5, 0x07, 0x12, 0x1c, 0x1b, 0xc9, 0xe5, 0x1f, 0xd2, 0x2c, 0xb3,
  0xeb, 0x05, 0xfc, 0xd4, 0x3b, 0xc6, 0x12, 0xff, 0xd4, 0x01, 0xcb, 0xfc,
  0x3c, 0xfb, 0x01, 0xe5, 0xf1, 0xff, 0x02, 0xeb, 0x0a, 0x33, 0xf4, 0xe1,
  0x20, 0xe1, 0xd8, 0xe1, 0x19, 0xeb, 0xf6, 0xe6, 0xfb, 0x0a, 0x12, 0xe1,
  0x06, 0x14, 0x00, 0xe4, 0x0a, 0xe4, 0xea, 0x0b, 0x42, 0x2b, 0xfd, 0xfa,
  0x09, 0x11, 0x02, 0xf6, 0xf2, 0x15, 0xe7, 0xfc, 0x05, 0xcd, 0x0d, 0xf3,
  0x37, 0x30, 0xe9, 0xec, 0xf6, 0x26, 0x07, 0x08, 0xfe, 0x25, 0xe6, 0xe6,
  0x24, 0xea, 0x0e, 0xd3, 0x49, 0x26, 0xe6, 0x0c, 0xf0, 0x19, 0xea, 0x0e,
  0xcc, 0x07, 0x0a, 0xd2, 0x27, 0x1f, 0x14, 0xcb, 0x26, 0x15, 0xd2, 0xfa,
  0xf5, 0x14, 0xef, 0x08, 0xb5, 0xed, 0xf6, 0xc5, 0x0a, 0x2d, 0x2b, 0x01,
  0x4d, 0x26, 0xdf, 0x20, 0x0d, 0xe9, 0xfd, 0x1f, 0xe0, 0x14, 0x27, 0x0e,
  0xf7, 0x09, 0x35, 0xf8, 0x2d, 0xfa, 0xe9, 0x24, 0xf6, 0x01, 0xef, 0x38,
  0xe0, 0xe7, 0xd3, 0xff, 0xd4, 0x30, 0x14, 0xcb, 0x17, 0xc0, 0xd8, 0x28,
  0xf5, 0x0b, 0xfa, 0x1c, 0xdb, 0x18, 0xf8, 0xf0, 0xf4, 0x03, 0x31, 0xeb,
  0x29, 0xd6, 0xef, 0x0e, 0xec, 0x10, 0x11, 0x21, 0xe5, 0x0c, 0xf7, 0xc0,
  0xca, 0xf8, 0x2f, 0xb7, 0xe6, 0xa9, 0xe6, 0x32, 0xfd, 0x38, 0x03, 0x52,
  0x0d, 0xca, 0x00, 0xd0, 0xd9, 0x4d, 0x2b, 0x0c, 0x0e, 0x2f, 0xf6, 0x10,
  0xfd, 0x9c, 0xf5, 0xdb, 0xf6, 0xe8, 0x3a, 0xe9, 0xd9, 0x2b, 0x21, 0xff,
  0xd5, 0x3f, 0x1f, 0x2a, 0x02, 0xd2, 0x18, 0xea, 0xec, 0xb1, 0x1b, 0x02,
  0xe0, 0x33, 0xfb, 0xfb, 0xf6, 0x12, 0x0d, 0x26, 0x0d, 0xfe, 0xff, 0xf6,
  0xd8, 0xd8, 0x53, 0x24, 0xff, 0x31, 0xff, 0xf9, 0x43, 0x62, 0xc7, 0x06,
  0x08, 0xe2, 0x02, 0xe8, 0xd6, 0xdb, 0xf5, 0x24, 0xf8, 0x21, 0x10, 0xe0,
  0x05, 0x57, 0xd9, 0xff, 0xf4, 0xcb, 0xf6, 0x0a, 0xcd, 0xe6, 0x1e, 0x38,
  0x00, 0x27, 0x19, 0xd6, 0x36, 0x24, 0xec, 0x0b, 0xf6, 0xec, 0xed, 0xcf,
  0xcf, 0xcc, 0xda, 0x21, 0xe7, 0x0e, 0xee, 0xe2, 0x1e, 0x4b, 0xf6, 0xf4,
  0xf3, 0xd3, 0xf8, 0xec, 0xe5, 0xd0, 0x97, 0x1b, 0xdb, 0x0f, 0xfa, 0xeb,
  0x2f, 0x2f, 0x1e, 0xfa, 0x05, 0x02, 0x10, 0xdf, 0xd0, 0xdb, 0xc8, 0x0c,
  0xe2, 0xfa, 0x0e, 0xea, 0x56, 0x20, 0x1a, 0x02, 0xf8, 0xcb, 0xfc, 0xfc,
  0xea, 0xdc, 0x15, 0x09, 0x24, 0x01, 0x01, 0x01, 0x72, 0x13, 0x0a, 0xf8,
  0xfc, 0xfa, 0x09, 0x00, 0xd9, 0xd1, 0xca, 0x2e, 0x33, 0xfd, 0x05, 0x06,
  0x48, 0x05, 0xee, 0x07, 0xfd, 0xe7, 0x00, 0x2b, 0xf1, 0xc7, 0xa3, 0xfd,
  0x1d, 0xe6, 0x01, 0xff, 0x21, 0x00, 0x38, 0xe3, 0x09, 0x26, 0xfd, 0xdb,
  0xe3, 0xda, 0xb7, 0x14, 0xe1, 0x03, 0x14, 0x01, 0x5f, 0x20, 0x13, 0xf9,
  0xef, 0x45, 0x06, 0xd9, 0xe5, 0xd2, 0xd6, 0x12, 0x36, 0xf5, 0xfa, 0xea,
  0x53, 0xf5, 0xfb, 0x0d, 0x00, 0x30, 0x04, 0x29, 0xbe, 0xab, 0x09, 0x07,
  0x35, 0x01, 0x1a, 0x0a, 0x31, 0x00, 0xca, 0xe2, 0x01, 0x19, 0xfb, 0x12,
  0xf5, 0xd0, 0xd9, 0x0f, 0x19, 0xf6, 0xf7, 0x32, 0x34, 0x03, 0x0e, 0x07,
  0xf2, 0x58, 0xf5, 0x06, 0xee, 0xe0, 0x02, 0x21, 0xf6, 0x04, 0xfc, 0x17,
  0x3a, 0x0e, 0xf9, 0xfc, 0x15, 0x42, 0xf8, 0x18, 0xe3, 0xdf, 0xac, 0x00,
  0x57, 0xc0, 0x01, 0x0e, 0x34, 0x09, 0x12, 0xfa, 0x0b, 0x41, 0x03, 0xf8,
  0xd1, 0xbf, 0xff, 0xec, 0x33, 0xf9, 0xf8, 0x11, 0x2f, 0xf4, 0x2d, 0x06,
  0xf4, 0x55, 0xf7, 0x06, 0xf3, 0xb8, 0x00, 0x01, 0x01, 0xf4, 0xef, 0xec,
  0x12, 0x26, 0x1a, 0xe9, 0xee, 0x64, 0x10, 0x10, 0xee, 0xce, 0x14, 0x3d,
  0x0a, 0xfc, 0xdd, 0x0a, 0x2a, 0x1c, 0xf9, 0xfb, 0x06, 0x53, 0xf9, 0xfd,
  0xc2, 0xc9, 0xc9, 0x29, 0x1f, 0xe6, 0xdb, 0x02, 0x30, 0x04, 0x0d, 0x01,
  0xf8, 0x41, 0x01, 0x16, 0xda, 0xdb, 0xe8, 0x60, 0x7f, 0xb5, 0xde, 0x09,
  0x18, 0x00, 0xc2, 0xe9, 0x13, 0x41, 0xfe, 0xe4, 0x25, 0x28, 0xbb, 0xc9,
  0xc6, 0xfc, 0x24, 0xbd, 0xc7, 0xb9, 0x22, 0x9e, 0xc0, 0x1b, 0xf1, 0x14,
  0x2f, 0x15, 0xc9, 0xb0, 0x24, 0x85, 0xcf, 0x1b, 0x27, 0x2a, 0x19, 0x98,
  0xfd, 0xf5, 0xea, 0x1c, 0xf8, 0x29, 0x9f, 0xea, 0xac, 0x42, 0xb5, 0x30,
  0x07, 0x98, 0xdc, 0x16, 0xfe, 0xce, 0xc2, 0xac, 0xea, 0xf7, 0xe3, 0x0f,
  0x9a, 0x9b, 0x9e, 0xcb, 0xaf, 0xf7, 0x2c, 0xbb, 0x2d, 0xb0, 0x25, 0xaa,
  0xc4, 0x40, 0x0b, 0xa2, 0x07, 0xb6, 0x0c, 0xbd, 0xed, 0xf8, 0x00, 0xdb,
  0xd7, 0xae, 0x4a, 0xea, 0xa9, 0xaf, 0xc7, 0xe7, 0x04, 0x28, 0xdf, 0xff,
  0x28, 0xea, 0x8c, 0x1c, 0xac, 0x00, 0xbd, 0xf2, 0xae, 0x0a, 0x10, 0x2b,
  0x44, 0xf8, 0x8d, 0x21, 0xff, 0xb0, 0xf6, 0x16, 0x17, 0xd2, 0x0f, 0xda,
  0xb5, 0xce, 0xe3, 0x42, 0x50, 0x11, 0x0a, 0xcb, 0xaa, 0x0e, 0x36, 0xd2,
  0xb1, 0x2e, 0x43, 0xe0, 0xb6, 0xad, 0xd5, 0xf9, 0xb7, 0x2c, 0x87, 0xcd,
  0xae, 0x14, 0x24, 0x9f, 0x39, 0xf3, 0xfd, 0x84, 0x1d, 0x2d, 0x28, 0x20,
  0xd3, 0x13, 0xe0, 0x06, 0xe3, 0x8f, 0xd7, 0xe9, 0xde, 0xae, 0xe8, 0x06,
  0xd9, 0x20, 0x9e, 0xe6, 0xa3, 0x8a, 0xde, 0x33, 0xfc, 0x94, 0xdf, 0xa4,
  0xce, 0xec, 0xef, 0x33, 0xbc, 0xae, 0xbd, 0xa4, 0xa2, 0xa0, 0xc5, 0xc1,
  0xac, 0x12, 0xc3, 0x32, 0x35, 0xdb, 0x0b, 0xfd, 0x2a, 0xa2, 0x34, 0xcb,
  0xe6, 0xbe, 0x24, 0x2c, 0xc2, 0x1f, 0xda, 0xb1, 0x42, 0xdd, 0x47, 0x04,
  0xad, 0xcf, 0xc7, 0x81, 0x0a, 0xd0, 0xfb, 0xaf, 0xe6, 0xd5, 0x35, 0x8d,
  0x29, 0xf0, 0x4e, 0xd7, 0xfa, 0xd5, 0xee, 0xc5, 0xba, 0x2f, 0x26, 0x1f,
  0xbb, 0xc7, 0xdf, 0x00, 0xfb, 0xa8, 0x28, 0x36, 0xfa, 0x33, 0x3b, 0xd8,
  0x04, 0xc8, 0xc2, 0xfe, 0x1b, 0x06, 0xa3, 0x91, 0x17, 0x39, 0xdc, 0x42,
  0xfb, 0xd6, 0xc8, 0xb4, 0xb0, 0xd0, 0xca, 0xd9, 0x82, 0x52, 0x0f, 0xba,
  0x44, 0x33, 0xc9, 0x21, 0x43, 0xfd, 0x45, 0x02, 0xa1, 0xf2, 0xa0, 0xce,
  0x98, 0xd0, 0x22, 0x83, 0xbd, 0xd7, 0x42, 0xb7, 0x1d, 0xe2, 0xc5, 0x0c,
  0xf4, 0x0a, 0xdf, 0x0a, 0xef, 0x13, 0x25, 0x2b, 0x37, 0xcc, 0xc3, 0x21,
  0xc5, 0xae, 0x41, 0x43, 0xce, 0x31, 0xf4, 0xbf, 0xe3, 0x1a, 0xed, 0x09,
  0x27, 0xe9, 0xe8, 0xf7, 0xb6, 0x43, 0xa5, 0xe3, 0xc3, 0xc7, 0x21, 0x58,
  0xf2, 0xd0, 0x0c, 0x30, 0x50, 0x10, 0xd6, 0xf3, 0x45, 0x2d, 0x1c, 0x0e,
  0xf7, 0x36, 0xb3, 0xe2, 0x0f, 0x37, 0xa4, 0xa5, 0x02, 0xee, 0x3d, 0x1a,
  0x16, 0xba, 0x00, 0x1c, 0xe0, 0xa1, 0xf5, 0xf6, 0xc6, 0xef, 0xff, 0xf5,
  0x2a, 0xcb, 0x2d, 0x60, 0xd0, 0xdb, 0x6c, 0x21, 0x67, 0x21, 0x10, 0x0e,
  0xde, 0xc7, 0x38, 0x1c, 0xec, 0xea, 0xf4, 0xc6, 0xc3, 0xb3, 0xd8, 0x20,
  0x0b, 0xf3, 0x20, 0x11, 0xd4, 0xba, 0x12, 0x12, 0x07, 0xdf, 0xef, 0x06,
  0xfa, 0xd9, 0x01, 0x04, 0x1d, 0x00, 0x20, 0x10, 0xee, 0xf3, 0xe9, 0x2a,
  0x13, 0xc3, 0xfe, 0x37, 0xa1, 0xb4, 0x07, 0xd8, 0x1c, 0xfb, 0x1b, 0xd3,
  0x12, 0x1d, 0xfc, 0x2e, 0xf3, 0xfa, 0x01, 0x47, 0x90, 0xbb, 0x14, 0x0c,
  0x08, 0xbf, 0x3c, 0xda, 0x2d, 0x22, 0x02, 0x1b, 0x06, 0x25, 0x01, 0x64,
  0xd3, 0xa7, 0x4a, 0x25, 0xff, 0xd5, 0x28, 0xd4, 0x46, 0x24, 0xde, 0x0d,
  0x05, 0x2a, 0x06, 0x17, 0xc4, 0xc9, 0xea, 0x05, 0x27, 0xc7, 0x10, 0xc2,
  0x3a, 0x51, 0xb5, 0xfd, 0x0f, 0x2a, 0xeb, 0x12, 0xe1, 0xef, 0xfb, 0x1e,
  0x17, 0x99, 0x0d, 0xd9, 0x2c, 0x51, 0xac, 0xc3, 0xeb, 0x1c, 0x11, 0x2f,
  0xe7, 0xfd, 0x35, 0x1b, 0x28, 0xa8, 0xe6, 0xef, 0x4a, 0x43, 0xd4, 0xb5,
  0xe9, 0x37, 0xfc, 0x19, 0x05, 0x32, 0xde, 0xfb, 0x0f, 0xb2, 0xd5, 0x0c,
  0x32, 0x26, 0x20, 0x87, 0xf4, 0x3f, 0xe2, 0xd7, 0x14, 0x27, 0xfd, 0xec,
  0xd4, 0xd8, 0xc7, 0x3f, 0x1e, 0xee, 0x3e, 0x81, 0xf8, 0x34, 0xfd, 0xc4,
  0x2c, 0x36, 0xe7, 0xe5, 0xd1, 0xef, 0xc7, 0x43, 0x0f, 0x19, 0x47, 0xc0,
  0xf0, 0x1f, 0xec, 0xaf, 0x3a, 0x5c, 0xc3, 0xe5, 0xd0, 0x33, 0xed, 0x46,
  0x00, 0xde, 0x41, 0xf4, 0x06, 0x3f, 0x0d, 0xf4, 0x24, 0x4b, 0xd3, 0xe7,
  0xcd, 0x18, 0x04, 0x27, 0xd9, 0xd1, 0x2d, 0x27, 0xf8, 0x1b, 0xe9, 0xfa,
  0x2b, 0x43, 0x06, 0x01, 0xd1, 0x3d, 0x03, 0x20, 0xc3, 0xab, 0x1f, 0x36,
  0x0f, 0x10, 0xfa, 0xea, 0x07, 0x17, 0xe0, 0xe5, 0xbc, 0x37, 0x03, 0x02,
  0xdd, 0xdf, 0x12, 0x22, 0x12, 0xeb, 0xfd, 0x0f, 0xe1, 0x2a, 0xfa, 0xe1,
  0x0a, 0x08, 0x1c, 0xd5, 0xd6, 0x13, 0xf0, 0x20, 0x01, 0xc3, 0xed, 0x3a,
  0xd6, 0x00, 0x09, 0xfd, 0x15, 0x30, 0xf9, 0xe8, 0xc5, 0x1c, 0xc8, 0x05,
  0xe9, 0xe6, 0xf8, 0xe6, 0xe2, 0x2d, 0xd5, 0xee, 0x1d, 0x1a, 0xe0, 0xd9,
  0xb1, 0x00, 0xd6, 0x04, 0xf9, 0xee, 0xf7, 0x26, 0x15, 0x3f, 0xd7, 0xd6,
  0x26, 0x16, 0xe7, 0xfa, 0xc5, 0x01, 0xbe, 0xfc, 0xf3, 0xd4, 0xed, 0x00,
  0xd8, 0x1f, 0x02, 0xd3, 0xf5, 0x15, 0xfa, 0xf6, 0xdd, 0xea, 0xb2, 0xf8,
  0x12, 0xeb, 0xf4, 0xce, 0x04, 0x03, 0x20, 0xbe, 0xe8, 0x12, 0xf3, 0xe5,
  0xe6, 0xb7, 0xc6, 0x0a, 0x15, 0xf1, 0xf2, 0xe7, 0x09, 0x1e, 0xeb, 0xe9,
  0x2d, 0x13, 0xe1, 0xe7, 0xe3, 0x09, 0x09, 0xf7, 0x06, 0x2d, 0x0e, 0x10,
  0xf4, 0x20, 0xe0, 0xcb, 0x0c, 0x09, 0x04, 0xfb, 0x0e, 0xe9, 0xe4, 0x0a,
  0x0c, 0xaf, 0x07, 0x0d, 0x27, 0x0b, 0xf0, 0xf4, 0x06, 0x05, 0x03, 0xeb,
  0xf2, 0x1b, 0xfd, 0x05, 0x05, 0xc6, 0x01, 0x1a, 0x09, 0x2b, 0xf9, 0x05,
  0x18, 0xfa, 0x01, 0xea, 0xf5, 0x09, 0xe5, 0xfb, 0xff, 0xeb, 0x01, 0xff,
  0x08, 0x29, 0x2e, 0xf5, 0x24, 0xf4, 0x05, 0x13, 0xf4, 0x08, 0x08, 0x07,
  0x04, 0xed, 0x02, 0x24, 0x09, 0x0c, 0x1a, 0x04, 0x03, 0x09, 0x00, 0xed,
  0x15, 0x0f, 0xfb, 0xf5, 0xf8, 0xd4, 0xf1, 0x04, 0x07, 0x1d, 0x1b, 0x0f,
  0xff, 0x07, 0xf9, 0xfa, 0x20, 0x0c, 0xe9, 0x08, 0x00, 0xed, 0x0b, 0xfb,
  0xf9, 0x13, 0xeb, 0x1a, 0x14, 0x01, 0xe9, 0xdc, 0x15, 0x19, 0xf2, 0x09,
  0x03, 0x06, 0x08, 0xde, 0x02, 0x28, 0xde, 0x1e, 0xec, 0xeb, 0xe2, 0xd7,
  0x0c, 0xf4, 0xfc, 0x0b, 0x06, 0x11, 0x00, 0xe1, 0x11, 0x03, 0xfa, 0x28,
  0x14, 0xee, 0x04, 0xee, 0x00, 0x06, 0x02, 0x0d, 0x0a, 0x12, 0x02, 0xe4,
  0x12, 0x01, 0xfa, 0x0a, 0xf8, 0x11, 0x0c, 0xf5, 0x05, 0x0c, 0xde, 0x14,
  0x04, 0xea, 0x12, 0xe0, 0x08, 0xe8, 0x05, 0x1a, 0xfc, 0xfc, 0x09, 0xf2,
  0x0b, 0x01, 0xf9, 0x02, 0x06, 0xfd, 0x0d, 0xe9, 0xf6, 0x1c, 0xd8, 0x14,
  0x08, 0xf7, 0x13, 0x08, 0x0d, 0x0a, 0xd3, 0x0e, 0x08, 0xfc, 0x0e, 0xff,
  0xfd, 0x18, 0x0a, 0x04, 0xf9, 0x02, 0x00, 0xe8, 0xfc, 0x1a, 0x0c, 0x0b,
  0xf6, 0xcb, 0xf7, 0xfe, 0xf7, 0xf5, 0x08, 0x0a, 0xfe, 0x00, 0x11, 0xfe,
  0x02, 0x08, 0xf7, 0x0d, 0xfb, 0xf2, 0xfa, 0xf6, 0x09, 0x0d, 0x2b, 0xff,
  0x29, 0xf7, 0x00, 0x09, 0xee, 0x13, 0xec, 0x00, 0xf8, 0x13, 0xf6, 0x04,
  0x07, 0x0b, 0x07, 0xfc, 0x2a, 0x01, 0xf2, 0x02, 0xf9, 0x1e, 0x0e, 0x0d,
  0xf9, 0x08, 0xf8, 0xea, 0x18, 0xfb, 0x0a, 0x19, 0x0c, 0xff, 0xff, 0xfb,
  0xfb, 0x0e, 0x12, 0x0b, 0xf7, 0x09, 0xf7, 0x00, 0x16, 0xdf, 0xe6, 0x03,
  0xfe, 0x06, 0x0b, 0x05, 0xd6, 0x00, 0x1c, 0x04, 0x0a, 0x02, 0xfc, 0x22,
  0xf8, 0xf2, 0xde, 0x13, 0x02, 0x0d, 0xf5, 0xe5, 0x04, 0x18, 0x02, 0x12,
  0x00, 0x04, 0xf9, 0x07, 0xed, 0xe7, 0xdb, 0x04, 0x1e, 0xea, 0xec, 0x0d,
  0xff, 0x17, 0xfa, 0x11, 0x0c, 0x0a, 0xf5, 0xfa, 0xec, 0xc3, 0xf3, 0xf5,
  0xf4, 0xf6, 0xd6, 0xe2, 0x1d, 0xec, 0x09, 0x24, 0x06, 0x27, 0xf3, 0xf9,
  0xe0, 0xf3, 0xcc, 0x03, 0x00, 0x04, 0xdb, 0xda, 0x23, 0xe3, 0x05, 0x32,
  0xfa, 0x34, 0x01, 0xf5, 0xe1, 0xcc, 0xcd, 0x2c, 0x1d, 0xdf, 0xf3, 0xe1,
  0x1b, 0xe5, 0xef, 0x1d, 0xf8, 0x7f, 0xfd, 0x07, 0xc2, 0xc9, 0xe9, 0x9a,
  0x89, 0x25, 0x8b, 0xae, 0xf0, 0xbf, 0xf5, 0xca, 0xf1, 0x44, 0x00, 0xf9,
  0xf9, 0xa1, 0x1e, 0xf4, 0xc9, 0x09, 0x94, 0xc2, 0x9a, 0x20, 0xf8, 0x12,
  0x1c, 0xdd, 0xb2, 0x14, 0x2f, 0x06, 0x3d, 0x92, 0x29, 0xa8, 0xc4, 0x21,
  0xf2, 0x8d, 0xc4, 0x23, 0x01, 0xc3, 0xfa, 0x1b, 0x10, 0xdd, 0xa5, 0x2a,
  0x08, 0xc3, 0xc1, 0x19, 0x1d, 0x9e, 0x36, 0xa0, 0x01, 0x03, 0xf3, 0x30,
  0x07, 0xe4, 0xcb, 0xf5, 0xc3, 0x14, 0xd9, 0x12, 0xb4, 0x99, 0xda, 0x36,
  0x44, 0xd9, 0x56, 0x88, 0xbb, 0xee, 0x1a, 0xef, 0xa3, 0x90, 0xd4, 0x97,
  0x9d, 0xbe, 0x44, 0x02, 0xc9, 0x1b, 0xa7, 0x0c, 0x0e, 0xd3, 0xc5, 0xdb,
  0xe8, 0xeb, 0x87, 0x8a, 0xa9, 0x06, 0xbc, 0xad, 0xdd, 0x2a, 0x13, 0x97,
  0x30, 0xdb, 0x24, 0x23, 0x4a, 0x8c, 0x83, 0x2f, 0x0b, 0x2a, 0x12, 0x4e,
  0x4c, 0xfe, 0xfb, 0xbe, 0x26, 0xd7, 0xd1, 0x81, 0x2e, 0xed, 0xd4, 0x24,
  0x15, 0x0b, 0x97, 0x16, 0x26, 0x05, 0x3f, 0xf8, 0xd4, 0x9c, 0x35, 0xb3,
  0x05, 0x9f, 0xbb, 0xa9, 0x92, 0x30, 0xb5, 0xeb, 0xbf, 0xf1, 0xbd, 0xc8,
  0x20, 0x1c, 0xcb, 0xcf, 0xd4, 0xe2, 0x10, 0xba, 0x31, 0xc1, 0x1b, 0x36,
  0x2d, 0xa1, 0x50, 0xf9, 0xd0, 0x2c, 0x21, 0xdd, 0xc8, 0xe1, 0x05, 0x44,
  0x87, 0xc9, 0x32, 0x06, 0x57, 0x15, 0x3d, 0x4a, 0xce, 0xf5, 0xc9, 0xb0,
  0xd3, 0x48, 0x07, 0x22, 0x00, 0x1f, 0xd5, 0x0e, 0x08, 0x21, 0x3b, 0xe9,
  0xab, 0xec, 0xca, 0xc6, 0xfa, 0x2f, 0x47, 0xc9, 0x04, 0x43, 0xeb, 0xe1,
  0xae, 0xa7, 0x0d, 0xf0, 0x17, 0xa6, 0x39, 0x9b, 0xfa, 0x09, 0xad, 0xca,
  0xe2, 0xc2, 0xb5, 0xcf, 0xf9, 0xad, 0x1c, 0x07, 0xf3, 0xc5, 0xe6, 0xc7,
  0x19, 0xa1, 0x27, 0xca, 0xdb, 0xe4, 0xe1, 0x15, 0x17, 0x3b, 0x4f, 0xf3,
  0x04, 0xfc, 0x3c, 0x1b, 0xfe, 0xff, 0x9d, 0xa9, 0xf2, 0x12, 0xd3, 0xbc,
  0xc1, 0x05, 0xb6, 0x19, 0x40, 0xa0, 0x98, 0xc5, 0xc5, 0x44, 0x1b, 0x1d,
  0x2d, 0xd3, 0xa4, 0x2f, 0x2b, 0xc1, 0x3b, 0xd7, 0xc8, 0xbe, 0x29, 0xd7,
  0x28, 0x1f, 0x08, 0x9e, 0xcc, 0x47, 0xc3, 0xcf, 0xd5, 0xd5, 0x42, 0xeb,
  0x0a, 0x90, 0x0a, 0x85, 0x1e, 0xa0, 0xc1, 0xfb, 0x81, 0xfd, 0xfd, 0x1b,
  0xfc, 0xbd, 0xbf, 0x42, 0x49, 0xc6, 0xf0, 0x1f, 0x42, 0xff, 0xf4, 0xa2,
  0x95, 0xfc, 0x33, 0xf4, 0x1a, 0x3b, 0xa8, 0xcf, 0x1a, 0x0d, 0x04, 0xd9,
  0x0d, 0xbb, 0xd3, 0x24, 0xdc, 0xe5, 0xd1, 0xa7, 0x0c, 0x18, 0xd8, 0xd5,
  0xe1, 0xa6, 0xbe, 0x2f, 0x2c, 0xb1, 0x22, 0xc9, 0xe5, 0x39, 0xf9, 0xd5,
  0x50, 0xea, 0xf7, 0xb0, 0xf6, 0x36, 0xbd, 0xa3, 0xaf, 0x8f, 0xf7, 0xf1,
  0xcd, 0xc0, 0x03, 0xf6, 0xef, 0xc4, 0xdc, 0x96, 0x40, 0xf0, 0xe4, 0x28,
  0x48, 0xa7, 0x3c, 0x37, 0xdd, 0x24, 0x24, 0x8a, 0xb6, 0x1b, 0x41, 0x47,
  0xd3, 0x3c, 0xda, 0xed, 0xa3, 0x9c, 0xc3, 0xbe, 0x27, 0x2a, 0xe6, 0xc5,
  0x47, 0xe6, 0x43, 0xc8, 0xd3, 0x09, 0xa4, 0x30, 0xa9, 0x1a, 0xa7, 0x1f,
  0xee, 0xcb, 0x3e, 0x1c, 0xfa, 0x00, 0x36, 0x34, 0xba, 0xd9, 0xe1, 0x16,
  0x34, 0xf5, 0xef, 0xfa, 0x3b, 0x8e, 0xc6, 0x0a, 0x11, 0xfd, 0x0f, 0xd3,
  0xbf, 0x30, 0xc7, 0x12, 0x15, 0xb4, 0xf9, 0xe7, 0x40, 0xc8, 0xfb, 0x31,
  0xbc, 0xd0, 0x1c, 0xee, 0xf7, 0xdc, 0xd3, 0x88, 0xdf, 0x29, 0x85, 0xa5,
  0x1d, 0xf0, 0x19, 0xd8, 0xc0, 0xbf, 0xcb, 0x0c, 0x07, 0x20, 0xe6, 0xdf,
  0xab, 0xf3, 0xff, 0x14, 0x31, 0x33, 0x46, 0xad, 0xe0, 0xc2, 0x02, 0x09,
  0x20, 0xcd, 0xc7, 0x22, 0xbc, 0x21, 0x10, 0xd2, 0x4b, 0x9c, 0x00, 0x2b,
  0xe9, 0xd0, 0xeb, 0x2d, 0xcc, 0xa6, 0x30, 0xa5, 0x99, 0xe8, 0xc5, 0xb4,
  0x23, 0xae, 0x3b, 0x2d, 0xa4, 0x5b, 0x01, 0xf9, 0xa0, 0xde, 0x21, 0x84,
  0xb4, 0xd2, 0x25, 0xfe, 0x2f, 0x0a, 0xc1, 0xf8, 0x07, 0xcf, 0xb2, 0xbb,
  0xe6, 0x07, 0xe4, 0x93, 0x17, 0xe6, 0x1e, 0x1b, 0xd8, 0x20, 0x9b, 0xce,
  0x2f, 0x5d, 0xb2, 0xdf, 0xa8, 0x14, 0x43, 0x97, 0xc4, 0x1d, 0xec, 0xbf,
  0x9e, 0xc4, 0x17, 0xb7, 0xeb, 0x2d, 0x29, 0xb6, 0xa2, 0xff, 0xa7, 0x12,
  0xeb, 0xb4, 0xf3, 0x3b, 0x1a, 0x1b, 0xb0, 0x98, 0xc1, 0x16, 0xbc, 0xa1,
  0x9c, 0xcb, 0x00, 0x13, 0x81, 0xf6, 0x2b, 0xfb, 0xee, 0x0e, 0x0a, 0x18,
  0xb3, 0x01, 0x0b, 0xeb, 0xb9, 0x22, 0x0e, 0x09, 0x11, 0x10, 0x2b, 0xa9,
  0xe3, 0x95, 0xbb, 0x36, 0x24, 0x41, 0xca, 0x1c, 0x9b, 0x32, 0xa1, 0xd9,
  0xae, 0x8f, 0x0b, 0x9e, 0xa0, 0xa2, 0x17, 0x27, 0x18, 0xff, 0xf5, 0x0c,
  0x21, 0xe2, 0x55, 0xf1, 0xc0, 0xfc, 0xc0, 0x0c, 0x31, 0x2e, 0xfd, 0x38,
  0x38, 0xc4, 0x4a, 0xb6, 0x09, 0xdd, 0x07, 0x1a, 0x18, 0xf2, 0x25, 0xcf,
  0xd6, 0xd1, 0xef, 0x2d, 0x59, 0x91, 0x2d, 0x39, 0xe5, 0xa9, 0xc8, 0xd6,
  0x3a, 0x2f, 0xc2, 0x0b, 0xb7, 0x29, 0x26, 0xa7, 0x02, 0x2c, 0x3f, 0xf5,
  0x34, 0x94, 0x53, 0xb6, 0xfe, 0x9d, 0x8d, 0xb3, 0x9c, 0xe2, 0xd5, 0xee,
  0x11, 0x20, 0xf4, 0xc6, 0x22, 0xfb, 0xf3, 0xb9, 0xf6, 0x22, 0x0f, 0x28,
  0xc0, 0x21, 0xc6, 0x17, 0xb6, 0xa2, 0x14, 0x99, 0x1f, 0x41, 0xad, 0xfe,
  0x17, 0xd8, 0xe6, 0xef, 0x3b, 0xf5, 0xd9, 0xba, 0xed, 0xd5, 0xcd, 0x92,
  0xb8, 0xcc, 0xb4, 0xcc, 0xfe, 0x1f, 0x36, 0xa1, 0xd2, 0x01, 0x8d, 0xa1,
  0x2c, 0xac, 0x3c, 0x0b, 0x07, 0xd9, 0xd5, 0xdf, 0xd8, 0xcb, 0x09, 0x3c,
  0xf1, 0xaf, 0xe3, 0x28, 0x30, 0x28, 0xc3, 0x1d, 0x17, 0x36, 0xb0, 0xbf,
  0x97, 0x9f, 0x21, 0x28, 0xbb, 0x03, 0x13, 0x14, 0xb3, 0xe0, 0x1a, 0x03,
  0xa9, 0xc2, 0xb3, 0xd8, 0xf5, 0xc4, 0xca, 0x2d, 0x10, 0xbe, 0xdd, 0xfe,
  0x21, 0xad, 0xae, 0x13, 0xe4, 0x09, 0x11, 0x25, 0xf2, 0xfc, 0xb1, 0x0a,
  0x3e, 0x23, 0x90, 0x01, 0x3b, 0x1d, 0x0b, 0xc3, 0xbf, 0x29, 0xc5, 0x37,
  0xa3, 0x44, 0x1a, 0xa8, 0x9c, 0xb4, 0x33, 0x96, 0xee, 0xfc, 0x41, 0xe4,
  0xbd, 0x96, 0x49, 0xf4, 0xbc, 0x4f, 0xc3, 0xa6, 0x83, 0xed, 0xf1, 0xa3,
  0x38, 0xa4, 0xbc, 0x10, 0x8f, 0x51, 0x24, 0xf3, 0xe4, 0x9f, 0xed, 0x81,
  0xfe, 0x16, 0xe5, 0x00, 0xc4, 0x3f, 0x45, 0xe3, 0xdf, 0xf4, 0x1a, 0xb3,
  0x39, 0x19, 0x17, 0x40, 0x46, 0x08, 0xab, 0xc7, 0x03, 0xba, 0xe6, 0x01,
  0xc1, 0x15, 0x2c, 0x83, 0xab, 0xcf, 0x22, 0xb6, 0xc4, 0xe5, 0xce, 0x15,
  0xfd, 0x29, 0x09, 0x0d, 0xb1, 0x3a, 0x9c, 0xef, 0x33, 0xac, 0xbd, 0x05,
  0xf2, 0x8a, 0x42, 0xc4, 0xe1, 0x2b, 0xe8, 0x9e, 0xd4, 0x1b, 0xd8, 0x2e,
  0xc8, 0x21, 0xbc, 0x06, 0x23, 0x90, 0x90, 0xd3, 0xee, 0x8a, 0x40, 0x2f,
  0xff, 0xf3, 0x3d, 0xc4, 0x29, 0x13, 0x1d, 0x9b, 0x37, 0x28, 0xe1, 0x96,
  0xdc, 0xd9, 0x20, 0xe2, 0xf3, 0xf6, 0xcf, 0xbd, 0xd6, 0x2c, 0x3e, 0xc3,
  0xc2, 0xab, 0x24, 0xf7, 0x34, 0xcc, 0xb7, 0xc8, 0x91, 0x2a, 0x09, 0x4f,
  0x0d, 0xcd, 0xe6, 0xa4, 0xd6, 0x14, 0xf1, 0xf0, 0x45, 0xd2, 0xb1, 0xca,
  0xea, 0x2e, 0xf5, 0xb6, 0xa9, 0x40, 0x29, 0xdc, 0x8e, 0x27, 0xdf, 0x25,
  0xdb, 0x4d, 0x01, 0xc1, 0xc9, 0xd2, 0xe6, 0xfe, 0x91, 0x0b, 0xd7, 0x48,
  0xa2, 0xfe, 0xde, 0xf5, 0xfc, 0x96, 0x11, 0x44, 0x21, 0x22, 0xac, 0x3c,
  0xea, 0x24, 0xca, 0x0a, 0x0d, 0xfe, 0x2a, 0x30, 0xee, 0x16, 0x01, 0x8a,
  0xf6, 0x2d, 0xd7, 0xd4, 0x29, 0xab, 0x01, 0xc2, 0x33, 0xed, 0x06, 0x15,
  0xdf, 0x45, 0xd5, 0x35, 0xc8, 0xf0, 0xd3, 0xfb, 0xa2, 0xc5, 0xaa, 0x2b,
  0x96, 0xbd, 0xff, 0xef, 0xb6, 0xf1, 0xdc, 0x1d, 0x98, 0x05, 0x17, 0x28,
  0xb2, 0xe1, 0x00, 0xcf, 0xae, 0x18, 0xc8, 0x3e, 0xae, 0x51, 0x44, 0x1d,
  0x0e, 0xcf, 0x0a, 0xd9, 0x3a, 0x36, 0xe6, 0xd8, 0xf9, 0xa9, 0xbe, 0xdc,
  0x22, 0x8f, 0x3c, 0xc9, 0x0a, 0x05, 0x89, 0xe4, 0x87, 0x83, 0x95, 0x02,
  0xda, 0x16, 0xe1, 0xda, 0x23, 0x3b, 0xd0, 0xca, 0xcc, 0xd9, 0xf8, 0x19,
  0x00, 0x0c, 0x27, 0xdd, 0x32, 0x1a, 0xbe, 0xfe, 0xf7, 0x20, 0xfc, 0x0d,
  0xd8, 0x00, 0xfd, 0x04, 0x3f, 0xe7, 0x0b, 0xbe, 0x47, 0x31, 0x00, 0x00,
  0x16, 0x0a, 0xee, 0x2c, 0xe8, 0xe4, 0xfc, 0xe3, 0x3d, 0xf3, 0xff, 0xea,
  0x45, 0x48, 0xfa, 0xee, 0x13, 0x51, 0x04, 0x30, 0x11, 0x13, 0x23, 0xfe,
  0x19, 0xd4, 0x0d, 0xec, 0x32, 0x1a, 0x16, 0xe8, 0xfd, 0x1c, 0x0d, 0xc7,
  0x31, 0x4c, 0xfc, 0xee, 0xe1, 0xb9, 0xfb, 0x02, 0x31, 0x13, 0x2b, 0xbd,
  0x13, 0x07, 0xff, 0x01, 0x20, 0x7f, 0x06, 0xe7, 0xc7, 0xf7, 0xf3, 0x10,
  0x0d, 0x06, 0x30, 0xc6, 0xf5, 0x17, 0x19, 0xfd, 0x17, 0x59, 0xe7, 0xea,
  0xc0, 0xfc, 0x08, 0x1b, 0x11, 0x22, 0x1b, 0xcc, 0x14, 0xdd, 0x09, 0xf1,
  0x33, 0x77, 0xc2, 0x09, 0xa3, 0x22, 0x0f, 0x38, 0x21, 0x09, 0x36, 0xf6,
  0x02, 0xaa, 0xea, 0xc2, 0x3d, 0x1a, 0xa9, 0xef, 0xa6, 0x57, 0x12, 0x55,
  0xd1, 0x07, 0x43, 0xf6, 0x05, 0x1d, 0xf5, 0xbc, 0x31, 0x17, 0x0b, 0x1b,
  0xb2, 0x37, 0xf5, 0x28, 0xcc, 0xde, 0x32, 0x14, 0xea, 0x11, 0xf1, 0xd5,
  0x1c, 0x33, 0xde, 0x08, 0x90, 0x3b, 0xf0, 0x17, 0xd0, 0x9a, 0x2e, 0x1b,
  0xff, 0xf9, 0x02, 0xff, 0xe0, 0x11, 0xe8, 0x0b, 0xcf, 0x14, 0xf3, 0x0b,
  0x10, 0xa3, 0x26, 0x34, 0xed, 0x03, 0x0f, 0xe5, 0xe3, 0xed, 0xce, 0x03,
  0xec, 0x13, 0xd1, 0xea, 0xf9, 0xaf, 0x0b, 0x4d, 0x0f, 0x06, 0xed, 0xfb,
  0xca, 0xeb, 0x02, 0x08, 0xe8, 0x38, 0xdd, 0xed, 0xe5, 0xce, 0x01, 0x2d,
  0x16, 0x0a, 0x01, 0x0e, 0xcc, 0xd5, 0xa9, 0xe9, 0xf4, 0xf2, 0xf5, 0xf4,
  0xfa, 0x00, 0xf7, 0x30, 0xf9, 0xfa, 0x0c, 0x27, 0xa0, 0x97, 0xd7, 0xd4,
  0x38, 0xab, 0xff, 0xf4, 0xfa, 0x25, 0xe8, 0x22, 0xfd, 0xc5, 0x1c, 0x0b,
  0xc5, 0xae, 0x28, 0xf6, 0x41, 0xb6, 0xf9, 0xe8, 0x04, 0x37, 0xc5, 0x02,
  0x0f, 0xc6, 0xe5, 0x02, 0xf4, 0xba, 0x4d, 0xf6, 0x39, 0xed, 0x02, 0xf3,
  0x03, 0x4e, 0xd6, 0xff, 0x05, 0xc1, 0x17, 0x1e, 0xd4, 0xc7, 0x38, 0x1a,
  0x1b, 0xa2, 0xf9, 0x05, 0xdb, 0x12, 0xe7, 0xfa, 0xee, 0x15, 0xfd, 0x12,
  0xff, 0x0a, 0x13, 0x06, 0x15, 0xd5, 0x05, 0xe8, 0x01, 0x22, 0xe1, 0xf5,
  0xf2, 0x09, 0xfe, 0x2e, 0x19, 0xcc, 0x02, 0x07, 0x18, 0xd6, 0xfc, 0xeb,
  0xde, 0xfd, 0xf7, 0xe2, 0xfe, 0x12, 0xfe, 0x59, 0x11, 0x02, 0x39, 0x0b,
  0x15, 0x0d, 0xfe, 0x07, 0x02, 0x0b, 0xd2, 0xff, 0xfe, 0x20, 0x0e, 0x55,
  0xfb, 0x0d, 0xba, 0x28, 0x1c, 0x02, 0x0b, 0xf4, 0x01, 0xf1, 0xd5, 0xff,
  0xf3, 0x17, 0x03, 0x03, 0x32, 0xfc, 0xff, 0xff, 0x04, 0x00, 0x00, 0x00,
  0x80, 0x00, 0x00, 0x00, 0xae, 0x00, 0x00, 0x00, 0xfb, 0x01, 0x00, 0x00,
  0x27, 0xfd, 0xff, 0xff, 0xc9, 0x00, 0x00, 0x00, 0x88, 0x01, 0x00, 0x00,
  0x22, 0x02, 0x00, 0x00, 0x64, 0xff, 0xff, 0xff, 0x33, 0x00, 0x00, 0x00,
  0x92, 0xfe, 0xff, 0xff, 0x65, 0xfd, 0xff, 0xff, 0xee, 0xfd, 0xff, 0xff,
  0x26, 0x00, 0x00, 0x00, 0xf2, 0x00, 0x00, 0x00, 0x24, 0xff, 0xff, 0xff,
  0x31, 0x02, 0x00, 0x00, 0xe1, 0xfd, 0xff, 0xff, 0xce, 0x01, 0x00, 0x00,
  0xba, 0x02, 0x00, 0x00, 0xcd, 0xff, 0xff, 0xff, 0x7e, 0xff, 0xff, 0xff,
  0xea, 0xfb, 0xff, 0xff, 0x91, 0xfe, 0xff, 0xff, 0xa7, 0xff, 0xff, 0xff,
  0x38, 0x00, 0x00, 0x00, 0xfe, 0xfb, 0xff, 0xff, 0xe4, 0xfb, 0xff, 0xff,
  0xae, 0x00, 0x00, 0x00, 0xee, 0xfd, 0xff, 0xff, 0x90, 0xfc, 0xff, 0xff,
  0x1b, 0xfe, 0xff, 0xff, 0xf5, 0xfd, 0xff, 0xff, 0x61, 0x00, 0x00, 0x00,
  0xbe, 0xfc, 0xff, 0xff, 0x04, 0x00, 0x00, 0x00, 0x40, 0x01, 0x00, 0x00,
  0x09, 0x21, 0xdc, 0xb7, 0x9a, 0xdc, 0xc2, 0xe0, 0x00, 0x19, 0x25, 0xac,
  0xb9, 0x07, 0x1e, 0xf7, 0x81, 0x14, 0x0e, 0x44, 0x37, 0x75, 0xfc, 0xc3,
  0x45, 0xf0, 0x3e, 0x2f, 0xe6, 0x16, 0x02, 0x31, 0xfa, 0x53, 0xf8, 0x9b,
  0x87, 0x29, 0xe5, 0xfb, 0xe7, 0x1f, 0xda, 0x0f, 0xc2, 0x14, 0x54, 0x17,
  0xed, 0x5c, 0xe3, 0x07, 0x3f, 0xe6, 0x81, 0x23, 0x07, 0x1d, 0x57, 0xe3,
  0x1e, 0xfe, 0x06, 0x3e, 0x07, 0x01, 0xfb, 0x4d, 0x41, 0x09, 0x0d, 0xd9,
  0xdf, 0xe0, 0xe0, 0xde, 0x0b, 0xfe, 0xf0, 0x0f, 0x33, 0xf5, 0xf9, 0xf4,
  0xce, 0xf3, 0x22, 0x27, 0xd2, 0x00, 0x81, 0xd5, 0xf6, 0x1a, 0xf9, 0x95,
  0xda, 0xf3, 0xfe, 0x4c, 0xd8, 0x49, 0xcc, 0xe3, 0x18, 0xef, 0xfd, 0x8b,
  0x5e, 0x43, 0xdc, 0x1f, 0xd2, 0xae, 0x99, 0x43, 0xf5, 0x7f, 0x15, 0x21,
  0xdf, 0x18, 0xa5, 0x23, 0xf0, 0xfa, 0x0a, 0xde, 0x05, 0xbc, 0xb2, 0x19,
  0xbf, 0x38, 0x07, 0x7f, 0x18, 0xbd, 0xd1, 0xdc, 0x46, 0xb6, 0x9a, 0xbe,
  0x06, 0x89, 0xc6, 0xc4, 0x92, 0x99, 0x23, 0xfe, 0x9c, 0xe3, 0xc7, 0x2b,
  0xb3, 0x3d, 0xf8, 0x0b, 0xe6, 0x6b, 0x25, 0x00, 0x14, 0x2e, 0xd9, 0xfb,
  0xe7, 0xf4, 0x2e, 0xfe, 0xc4, 0xdf, 0x36, 0x2a, 0x2c, 0x7f, 0x40, 0xcc,
  0xaf, 0xc6, 0x0a, 0xd8, 0x20, 0xf9, 0x2c, 0xad, 0xda, 0x1a, 0x14, 0xe9,
  0xe3, 0xb4, 0xfa, 0xed, 0x81, 0xbf, 0x13, 0x34, 0xdf, 0x14, 0xe8, 0xf1,
  0xcc, 0xdc, 0x2d, 0x01, 0x94, 0x06, 0xae, 0xc4, 0x4e, 0x32, 0x04, 0x28,
  0x39, 0xf4, 0xe0, 0x16, 0xd8, 0x1a, 0x0e, 0xed, 0x53, 0xb5, 0xe4, 0x10,
  0xbe, 0xf3, 0x4b, 0xc5, 0xe4, 0x09, 0xda, 0x24, 0xce, 0xec, 0xd2, 0x04,
  0x8c, 0x0b, 0x88, 0x1b, 0x44, 0xf5, 0x13, 0x34, 0x20, 0xfb, 0x81, 0x05,
  0x1a, 0x03, 0xfe, 0x8c, 0x88, 0x24, 0x12, 0xeb, 0x36, 0x27, 0xfe, 0x2f,
  0x3e, 0x21, 0xd7, 0x07, 0x14, 0x5c, 0xd1, 0x27, 0x3f, 0xd3, 0x5b, 0xdb,
  0xdc, 0x03, 0xe7, 0x81, 0x1d, 0xd7, 0x0c, 0xc9, 0xec, 0xfc, 0xfe, 0x3a,
  0x27, 0x4c, 0x44, 0x81, 0xcf, 0x16, 0x03, 0xfa, 0x33, 0xe1, 0x1e, 0x62,
  0x24, 0xad, 0x41, 0xda, 0x4c, 0x2c, 0x2b, 0x63, 0xd0, 0x8d, 0x8f, 0xe1,
  0xd4, 0x38, 0x1f, 0xed, 0xc6, 0x3e, 0x34, 0x34, 0x0a, 0xfe, 0xff, 0xff,
  0x04, 0x00, 0x00, 0x00, 0x28, 0x00, 0x00, 0x00, 0x05, 0xfe, 0xff, 0xff,
  0x69, 0x01, 0x00, 0x00, 0x89, 0x02, 0x00, 0x00, 0xa6, 0xfe, 0xff, 0xff,
  0x97, 0x05, 0x00, 0x00, 0x5b, 0x00, 0x00, 0x00, 0xa6, 0xff, 0xff, 0xff,
  0xdb, 0xfe, 0xff, 0xff, 0x50, 0xfd, 0xff, 0xff, 0x18, 0xfd, 0xff, 0xff,
  0x3e, 0xfe, 0xff, 0xff, 0x04, 0x00, 0x00, 0x00, 0x04, 0x00, 0x00, 0x00,
  0x70, 0x01, 0x00, 0x00, 0x4e, 0xfe, 0xff, 0xff, 0x04, 0x00, 0x00, 0x00,
  0x04, 0x00, 0x00, 0x00, 0x01, 0x00, 0x00, 0x00, 0x5e, 0xfe, 0xff, 0xff,
  0x04, 0x00, 0x00, 0x00, 0x04, 0x00, 0x00, 0x00, 0x00, 0x00, 0x00, 0x00,
  0x34, 0xeb, 0xff, 0xff, 0x38, 0xeb, 0xff, 0xff, 0x0f, 0x00, 0x00, 0x00,
  0x4d, 0x4c, 0x49, 0x52, 0x20, 0x43, 0x6f, 0x6e, 0x76, 0x65, 0x72, 0x74,
  0x65, 0x64, 0x2e, 0x00, 0x01, 0x00, 0x00, 0x00, 0x14, 0x00, 0x00, 0x00,
  0x00, 0x00, 0x0e, 0x00, 0x18, 0x00, 0x14, 0x00, 0x10, 0x00, 0x0c, 0x00,
  0x08, 0x00, 0x04, 0x00, 0x0e, 0x00, 0x00, 0x00, 0x14, 0x00, 0x00, 0x00,
  0x1c, 0x00, 0x00, 0x00, 0x64, 0x03, 0x00, 0x00, 0x68, 0x03, 0x00, 0x00,
  0x6c, 0x03, 0x00, 0x00, 0x04, 0x00, 0x00, 0x00, 0x6d, 0x61, 0x69, 0x6e,
  0x00, 0x00, 0x00, 0x00, 0x0d, 0x00, 0x00, 0x00, 0x2c, 0x03, 0x00, 0x00,
  0xcc, 0x02, 0x00, 0x00, 0x68, 0x02, 0x00, 0x00, 0x10, 0x02, 0x00, 0x00,
  0xcc, 0x01, 0x00, 0x00, 0x90, 0x01, 0x00, 0x00, 0x40, 0x01, 0x00, 0x00,
  0x00, 0x01, 0x00, 0x00, 0xd8, 0x00, 0x00, 0x00, 0x90, 0x00, 0x00, 0x00,
  0x58, 0x00, 0x00, 0x00, 0x24, 0x00, 0x00, 0x00, 0x04, 0x00, 0x00, 0x00,
  0x12, 0xfd, 0xff, 0xff, 0x08, 0x00, 0x00, 0x00, 0x0c, 0x00, 0x00, 0x00,
  0x01, 0x00, 0x00, 0x00, 0x18, 0x00, 0x00, 0x00, 0x01, 0x00, 0x00, 0x00,
  0x17, 0x00, 0x00, 0x00, 0x8e, 0xfd, 0xff, 0xff, 0x14, 0x00, 0x00, 0x00,
  0x00, 0x00, 0x00, 0x09, 0x14, 0x00, 0x00, 0x00, 0x18, 0x00, 0x00, 0x00,
  0x08, 0x00, 0x00, 0x00, 0x32, 0xff, 0xff, 0xff, 0x00, 0x00, 0x80, 0x3f,
  0x01, 0x00, 0x00, 0x00, 0x17, 0x00, 0x00, 0x00, 0x01, 0x00, 0x00, 0x00,
  0x16, 0x00, 0x00, 0x00, 0xbe, 0xfd, 0xff, 0xff, 0x14, 0x00, 0x00, 0x00,
  0x00, 0x00, 0x00, 0x08, 0x10, 0x00, 0x00, 0x00, 0x14, 0x00, 0x00, 0x00,
  0x07, 0x00, 0x00, 0x00, 0x28, 0xec, 0xff, 0xff, 0x01, 0x00, 0x00, 0x00,
  0x16, 0x00, 0x00, 0x00, 0x03, 0x00, 0x00, 0x00, 0x15, 0x00, 0x00, 0x00,
  0x05, 0x00, 0x00, 0x00, 0x04, 0x00, 0x00, 0x00, 0xf2, 0xfd, 0xff, 0xff,
  0x14, 0x00, 0x00, 0x00, 0x00, 0x00, 0x00, 0x08, 0x14, 0x00, 0x00, 0x00,
  0x18, 0x00, 0x00, 0x00, 0x07, 0x00, 0x00, 0x00, 0x0e, 0xff, 0xff, 0xff,
  0x00, 0x00, 0x00, 0x01, 0x01, 0x00, 0x00, 0x00, 0x15, 0x00, 0x00, 0x00,
  0x03, 0x00, 0x00, 0x00, 0x14, 0x00, 0x00, 0x00, 0x07, 0x00, 0x00, 0x00,
  0x06, 0x00, 0x00, 0x00, 0x00, 0x00, 0x0a, 0x00, 0x10, 0x00, 0x0c, 0x00,
  0x08, 0x00, 0x04, 0x00, 0x0a, 0x00, 0x00, 0x00, 0x0c, 0x00, 0x00, 0x00,
  0x10, 0x00, 0x00, 0x00, 0x06, 0x00, 0x00, 0x00, 0x01, 0x00, 0x00, 0x00,
  0x14, 0x00, 0x00, 0x00, 0x02, 0x00, 0x00, 0x00, 0x10, 0x00, 0x00, 0x00,
  0x13, 0x00, 0x00, 0x00, 0xba, 0xfe, 0xff, 0xff, 0x1c, 0x00, 0x00, 0x00,
  0x00, 0x00, 0x00, 0x3b, 0x1c, 0x00, 0x00, 0x00, 0x20, 0x00, 0x00, 0x00,
  0x05, 0x00, 0x00, 0x00, 0x00, 0x00, 0x06, 0x00, 0x08, 0x00, 0x04, 0x00,
  0x06, 0x00, 0x00, 0x00, 0x02, 0x00, 0x00, 0x00, 0x01, 0x00, 0x00, 0x00,
  0x13, 0x00, 0x00, 0x00, 0x02, 0x00, 0x00, 0x00, 0x12, 0x00, 0x00, 0x00,
  0x03, 0x00, 0x00, 0x00, 0xf6, 0xfe, 0xff, 0xff, 0x24, 0x00, 0x00, 0x00,
  0x00, 0x00, 0x00, 0x20, 0x24, 0x00, 0x00, 0x00, 0x28, 0x00, 0x00, 0x00,
  0x04, 0x00, 0x00, 0x00, 0x00, 0x00, 0x0e, 0x00, 0x08, 0x00, 0x00, 0x00,
  0x00, 0x00, 0x00, 0x00, 0x00, 0x00, 0x04, 0x00, 0x0e, 0x00, 0x00, 0x00,
  0x01, 0x00, 0x00, 0x00, 0x01, 0x00, 0x00, 0x00, 0x12, 0x00, 0x00, 0x00,
  0x04, 0x00, 0x00, 0x00, 0x11, 0x00, 0x00, 0x00, 0x01, 0x00, 0x00, 0x00,
  0x02, 0x00, 0x00, 0x00, 0x02, 0x00, 0x00, 0x00, 0x42, 0xff, 0xff, 0xff,
  0x1c, 0x00, 0x00, 0x00, 0x00, 0x00, 0x00, 0x37, 0x1c, 0x00, 0x00, 0x00,
  0x20, 0x00, 0x00, 0x00, 0x03, 0x00, 0x00, 0x00, 0x00, 0x00, 0x06, 0x00,
  0x08, 0x00, 0x07, 0x00, 0x06, 0x00, 0x00, 0x00, 0x00, 0x00, 0x00, 0x02,
  0x01, 0x00, 0x00, 0x00, 0x11, 0x00, 0x00, 0x00, 0x01, 0x00, 0x00, 0x00,
  0x10, 0x00, 0x00, 0x00, 0x1a, 0xff, 0xff, 0xff, 0x14, 0x00, 0x00, 0x00,
  0x00, 0x00, 0x00, 0x05, 0x24, 0x00, 0x00, 0x00, 0x28, 0x00, 0x00, 0x00,
  0x02, 0x00, 0x00, 0x00, 0x6a, 0xff, 0xff, 0xff, 0x02, 0x00, 0x00, 0x00,
  0x02, 0x00, 0x00, 0x00, 0x02, 0x00, 0x00, 0x00, 0x02, 0x00, 0x00, 0x00,
  0x00, 0x00, 0x00, 0x01, 0x01, 0x00, 0x00, 0x00, 0x10, 0x00, 0x00, 0x00,
  0x01, 0x00, 0x00, 0x00, 0x0f, 0x00, 0x00, 0x00, 0x5a, 0xff, 0xff, 0xff,
  0x14, 0x00, 0x00, 0x00, 0x00, 0x00, 0x00, 0x01, 0x20, 0x00, 0x00, 0x00,
  0x24, 0x00, 0x00, 0x00, 0x01, 0x00, 0x00, 0x00, 0x4c, 0xff, 0xff, 0xff,
  0x00, 0x00, 0x00, 0x01, 0x01, 0x00, 0x00, 0x00, 0x01, 0x00, 0x00, 0x00,
  0x00, 0x00, 0x00, 0x01, 0x01, 0x00, 0x00, 0x00, 0x0f, 0x00, 0x00, 0x00,
  0x03, 0x00, 0x00, 0x00, 0x0e, 0x00, 0x00, 0x00, 0x09, 0x00, 0x00, 0x00,
  0x08, 0x00, 0x00, 0x00, 0x00, 0x00, 0x0e, 0x00, 0x1a, 0x00, 0x14, 0x00,
  0x10, 0x00, 0x0c, 0x00, 0x0b, 0x00, 0x04, 0x00, 0x0e, 0x00, 0x00, 0x00,
  0x24, 0x00, 0x00, 0x00, 0x00, 0x00, 0x00, 0x05, 0x34, 0x00, 0x00, 0x00,
  0x38, 0x00, 0x00, 0x00, 0x02, 0x00, 0x00, 0x00, 0x00, 0x00, 0x0e, 0x00,
  0x18, 0x00, 0x17, 0x00, 0x10, 0x00, 0x0c, 0x00, 0x08, 0x00, 0x04, 0x00,
  0x0e, 0x00, 0x00, 0x00, 0x02, 0x00, 0x00, 0x00, 0x02, 0x00, 0x00, 0x00,
  0x02, 0x00, 0x00, 0x00, 0x02, 0x00, 0x00, 0x00, 0x00, 0x00, 0x00, 0x01,
  0x01, 0x00, 0x00, 0x00, 0x0e, 0x00, 0x00, 0x00, 0x01, 0x00, 0x00, 0x00,
  0x0d, 0x00, 0x00, 0x00, 0x00, 0x00, 0x0e, 0x00, 0x18, 0x00, 0x14, 0x00,
  0x10, 0x00, 0x0c, 0x00, 0x0b, 0x00, 0x04, 0x00, 0x0e, 0x00, 0x00, 0x00,
  0x20, 0x00, 0x00, 0x00, 0x00, 0x00, 0x00, 0x01, 0x2c, 0x00, 0x00, 0x00,
  0x30, 0x00, 0x00, 0x00, 0x01, 0x00, 0x00, 0x00, 0x0c, 0x00, 0x14, 0x00,
  0x13, 0x00, 0x0c, 0x00, 0x08, 0x00, 0x07, 0x00, 0x0c, 0x00, 0x00, 0x00,
  0x00, 0x00, 0x00, 0x01, 0x01, 0x00, 0x00, 0x00, 0x01, 0x00, 0x00, 0x00,
  0x00, 0x00, 0x00, 0x01, 0x01, 0x00, 0x00, 0x00, 0x0d, 0x00, 0x00, 0x00,
  0x03, 0x00, 0x00, 0x00, 0x0c, 0x00, 0x00, 0x00, 0x0b, 0x00, 0x00, 0x00,
  0x0a, 0x00, 0x00, 0x00, 0x00, 0x00, 0x0a, 0x00, 0x0c, 0x00, 0x00, 0x00,
  0x08, 0x00, 0x04, 0x00, 0x0a, 0x00, 0x00, 0x00, 0x08, 0x00, 0x00, 0x00,
  0x0c, 0x00, 0x00, 0x00, 0x01, 0x00, 0x00, 0x00, 0x0c, 0x00, 0x00, 0x00,
  0x01, 0x00, 0x00, 0x00, 0x00, 0x00, 0x00, 0x00, 0x01, 0x00, 0x00, 0x00,
  0x18, 0x00, 0x00, 0x00, 0x01, 0x00, 0x00, 0x00, 0x00, 0x00, 0x00, 0x00,
  0x19, 0x00, 0x00, 0x00, 0x50, 0x11, 0x00, 0x00, 0xf4, 0x10, 0x00, 0x00,
  0x9c, 0x10, 0x00, 0x00, 0x60, 0x10, 0x00, 0x00, 0x94, 0x0f, 0x00, 0x00,
  0xc0, 0x0e, 0x00, 0x00, 0xec, 0x0c, 0x00, 0x00, 0x10, 0x0b, 0x00, 0x00,
  0xfc, 0x09, 0x00, 0x00, 0xd8, 0x08, 0x00, 0x00, 0x24, 0x08, 0x00, 0x00,
  0x60, 0x07, 0x00, 0x00, 0xdc, 0x06, 0x00, 0x00, 0x08, 0x06, 0x00, 0x00,
  0x6c, 0x05, 0x00, 0x00, 0x78, 0x04, 0x00, 0x00, 0xdc, 0x03, 0x00, 0x00,
  0x8c, 0x03, 0x00, 0x00, 0x38, 0x03, 0x00, 0x00, 0xe0, 0x02, 0x00, 0x00,
  0x5c, 0x02, 0x00, 0x00, 0xa8, 0x01, 0x00, 0x00, 0x04, 0x01, 0x00, 0x00,
  0x80, 0x00, 0x00, 0x00, 0x04, 0x00, 0x00, 0x00, 0x2a, 0xef, 0xff, 0xff,
  0x00, 0x00, 0x00, 0x01, 0x18, 0x00, 0x00, 0x00, 0x20, 0x00, 0x00, 0x00,
  0x3c, 0x00, 0x00, 0x00, 0x19, 0x00, 0x00, 0x00, 0x00, 0x00, 0x00, 0x03,
  0x50, 0x00, 0x00, 0x00, 0x02, 0x00, 0x00, 0x00, 0xff, 0xff, 0xff, 0xff,
  0x0a, 0x00, 0x00, 0x00, 0x0c, 0xef, 0xff, 0xff, 0x08, 0x00, 0x00, 0x00,
  0x10, 0x00, 0x00, 0x00, 0x01, 0x00, 0x00, 0x00, 0x00, 0x00, 0x00, 0x00,
  0x00, 0x00, 0x00, 0x00, 0x01, 0x00, 0x00, 0x00, 0x00, 0x00, 0x80, 0x3b,
  0x1b, 0x00, 0x00, 0x00, 0x53, 0x74, 0x61, 0x74, 0x65, 0x66, 0x75, 0x6c,
  0x50, 0x61, 0x72, 0x74, 0x69, 0x74, 0x69, 0x6f, 0x6e, 0x65, 0x64, 0x43,
  0x61, 0x6c, 0x6c, 0x5f, 0x31, 0x3a, 0x30, 0x00, 0x02, 0x00, 0x00, 0x00,
  0x01, 0x00, 0x00, 0x00, 0x0a, 0x00, 0x00, 0x00, 0xa2, 0xef, 0xff, 0xff,
  0x00, 0x00, 0x00, 0x01, 0x18, 0x00, 0x00, 0x00, 0x20, 0x00, 0x00, 0x00,
  0x40, 0x00, 0x00, 0x00, 0x18, 0x00, 0x00, 0x00, 0x00, 0x00, 0x00, 0x09,
  0x58, 0x00, 0x00, 0x00, 0x02, 0x00, 0x00, 0x00, 0xff, 0xff, 0xff, 0xff,
  0x0a, 0x00, 0x00, 0x00, 0x84, 0xef, 0xff, 0xff, 0x08, 0x00, 0x00, 0x00,
  0x14, 0x00, 0x00, 0x00, 0x01, 0x00, 0x00, 0x00, 0x80, 0xff, 0xff, 0xff,
  0xff, 0xff, 0xff, 0xff, 0x00, 0x00, 0x00, 0x00, 0x01, 0x00, 0x00, 0x00,
  0x00, 0x00, 0x80, 0x3b, 0x1c, 0x00, 0x00, 0x00, 0x53, 0x74, 0x61, 0x74,
  0x65, 0x66, 0x75, 0x6c, 0x50, 0x61, 0x72, 0x74, 0x69, 0x74, 0x69, 0x6f,
  0x6e, 0x65, 0x64, 0x43, 0x61, 0x6c, 0x6c, 0x5f, 0x31, 0x3a, 0x30, 0x31,
  0x00, 0x00, 0x00, 0x00, 0x02, 0x00, 0x00, 0x00, 0x01, 0x00, 0x00, 0x00,
  0x0a, 0x00, 0x00, 0x00, 0x22, 0xf0, 0xff, 0xff, 0x00, 0x00, 0x00, 0x01,
  0x18, 0x00, 0x00, 0x00, 0x20, 0x00, 0x00, 0x00, 0x40, 0x00, 0x00, 0x00,
  0x17, 0x00, 0x00, 0x00, 0x00, 0x00, 0x00, 0x09, 0x78, 0x00, 0x00, 0x00,
  0x02, 0x00, 0x00, 0x00, 0xff, 0xff, 0xff, 0xff, 0x0a, 0x00, 0x00, 0x00,
  0x04, 0xf0, 0xff, 0xff, 0x08, 0x00, 0x00, 0x00, 0x14, 0x00, 0x00, 0x00,
  0x01, 0x00, 0x00, 0x00, 0x0a, 0x00, 0x00, 0x00, 0x00, 0x00, 0x00, 0x00,
  0x00, 0x00, 0x00, 0x00, 0x01, 0x00, 0x00, 0x00, 0x24, 0xc7, 0x78, 0x3e,
  0x3c, 0x00, 0x00, 0x00, 0x73, 0x65, 0x71, 0x75, 0x65, 0x6e, 0x74, 0x69,
  0x61, 0x6c, 0x5f, 0x31, 0x2f, 0x64, 0x65, 0x6e, 0x73, 0x65, 0x5f, 0x31,
  0x5f, 0x32, 0x2f, 0x4d, 0x61, 0x74, 0x4d, 0x75, 0x6c, 0x3b, 0x73, 0x65,
  0x71, 0x75, 0x65, 0x6e, 0x74, 0x69, 0x61, 0x6c, 0x5f, 0x31, 0x2f, 0x64,
  0x65, 0x6e, 0x73, 0x65, 0x5f, 0x31, 0x5f, 0x32, 0x2f, 0x42, 0x69, 0x61,
  0x73, 0x41, 0x64, 0x64, 0x00, 0x00, 0x00, 0x00, 0x02, 0x00, 0x00, 0x00,
  0x01, 0x00, 0x00, 0x00, 0x0a, 0x00, 0x00, 0x00, 0xc2, 0xf0, 0xff, 0xff,
  0x00, 0x00, 0x00, 0x01, 0x18, 0x00, 0x00, 0x00, 0x20, 0x00, 0x00, 0x00,
  0x3c, 0x00, 0x00, 0x00, 0x16, 0x00, 0x00, 0x00, 0x00, 0x00, 0x00, 0x09,
  0x88, 0x00, 0x00, 0x00, 0x02, 0x00, 0x00, 0x00, 0xff, 0xff, 0xff, 0xff,
  0x20, 0x00, 0x00, 0x00, 0xa4, 0xf0, 0xff, 0xff, 0x08, 0x00, 0x00, 0x00,
  0x10, 0x00, 0x00, 0x00, 0x01, 0x00, 0x00, 0x00, 0x80, 0xff, 0xff, 0xff,
  0xff, 0xff, 0xff, 0xff, 0x01, 0x00, 0x00, 0x00, 0xed, 0x60, 0xad, 0x3d,
  0x52, 0x00, 0x00, 0x00, 0x73, 0x65, 0x71, 0x75, 0x65, 0x6e, 0x74, 0x69,
  0x61, 0x6c, 0x5f, 0x31, 0x2f, 0x64, 0x65, 0x6e, 0x73, 0x65, 0x5f, 0x31,
  0x2f, 0x4d, 0x61, 0x74, 0x4d, 0x75, 0x6c, 0x3b, 0x73, 0x65, 0x71, 0x75,
  0x65, 0x6e, 0x74, 0x69, 0x61, 0x6c, 0x5f, 0x31, 0x2f, 0x64, 0x65, 0x6e,
  0x73, 0x65, 0x5f, 0x31, 0x2f, 0x52, 0x65, 0x6c, 0x75, 0x3b, 0x73, 0x65,
  0x71, 0x75, 0x65, 0x6e, 0x74, 0x69, 0x61, 0x6c, 0x5f, 0x31, 0x2f, 0x64,
  0x65, 0x6e, 0x73, 0x65, 0x5f, 0x31, 0x2f, 0x42, 0x69, 0x61, 0x73, 0x41,
  0x64, 0x64, 0x00, 0x00, 0x02, 0x00, 0x00, 0x00, 0x01, 0x00, 0x00, 0x00,
  0x20, 0x00, 0x00, 0x00, 0x72, 0xf1, 0xff, 0xff, 0x00, 0x00, 0x00, 0x01,
  0x18, 0x00, 0x00, 0x00, 0x20, 0x00, 0x00, 0x00, 0x40, 0x00, 0x00, 0x00,
  0x15, 0x00, 0x00, 0x00, 0x00, 0x00, 0x00, 0x09, 0x58, 0x00, 0x00, 0x00,
  0x02, 0x00, 0x00, 0x00, 0xff, 0xff, 0xff, 0xff, 0x70, 0x01, 0x00, 0x00,
  0x54, 0xf1, 0xff, 0xff, 0x08, 0x00, 0x00, 0x00, 0x14, 0x00, 0x00, 0x00,
  0x01, 0x00, 0x00, 0x00, 0x80, 0xff, 0xff, 0xff, 0xff, 0xff, 0xff, 0xff,
  0x00, 0x00, 0x00, 0x00, 0x01, 0x00, 0x00, 0x00, 0xf7, 0x64, 0x1a, 0x3d,
  0x1e, 0x00, 0x00, 0x00, 0x73, 0x65, 0x71, 0x75, 0x65, 0x6e, 0x74, 0x69,
  0x61, 0x6c, 0x5f, 0x31, 0x2f, 0x66, 0x6c, 0x61, 0x74, 0x74, 0x65, 0x6e,
  0x5f, 0x31, 0x2f, 0x52, 0x65, 0x73, 0x68, 0x61, 0x70, 0x65, 0x00, 0x00,
  0x02, 0x00, 0x00, 0x00, 0x01, 0x00, 0x00, 0x00, 0x70, 0x01, 0x00, 0x00,
  0x4a, 0xf2, 0xff, 0xff, 0x00, 0x00, 0x00, 0x01, 0x14, 0x00, 0x00, 0x00,
  0x14, 0x00, 0x00, 0x00, 0x14, 0x00, 0x00, 0x00, 0x00, 0x00, 0x00, 0x02,
  0x34, 0x00, 0x00, 0x00, 0x34, 0xf2, 0xff, 0xff, 0x24, 0x00, 0x00, 0x00,
  0x73, 0x65, 0x71, 0x75, 0x65, 0x6e, 0x74, 0x69, 0x61, 0x6c, 0x5f, 0x31,
  0x2f, 0x66, 0x6c, 0x61, 0x74, 0x74, 0x65, 0x6e, 0x5f, 0x31, 0x2f, 0x52,
